{
  "version": "1.0",
  "truncation": null,
  "padding": null,
  "added_tokens": [
    {
      "id": 0,
      "content": "<|endoftext|>",
      "single_word": false,
      "lstrip": false,
      "rstrip": false,
      "normalized": true,
      "special": true
    }
  ],
  "normalizer": null,
  "pre_tokenizer": {
    "type": "ByteLevel",
    "add_prefix_space": false,
    "trim_offsets": true,
    "use_regex": true
  },
  "post_processor": {
    "type": "ByteLevel",
    "add_prefix_space": true,
    "trim_offsets": false,
    "use_regex": true
  },
  "decoder": {
    "type": "ByteLevel",
    "add_prefix_space": true,
    "trim_offsets": true,
    "use_regex": true
  },
  "model": {
    "type": "BPE",
    "dropout": null,
    "unk_token": null,
    "continuing_subword_prefix": "",
    "end_of_word_suffix": "",
    "fuse_unk": false,
    "byte_fallback": false,
    "ignore_merges": false,
    "vocab": {
      "<|endoftext|>": 0,
      "!": 1,
      "\"": 2,
      "#": 3,
      "$": 4,
      "%": 5,
      "&": 6,
      "'": 7,
      "(": 8,
      ")": 9,
      "*": 10,
      "+": 11,
      ",": 12,
      "-": 13,
      ".": 14,
      "/": 15,
      "0": 16,
      "1": 17,
      "2": 18,
      "3": 19,
      "4": 20,
      "5": 21,
      "6": 22,
      "7": 23,
      "8": 24,
      "9": 25,
      ":": 26,
      ";": 27,
      "<": 28,
      "=": 29,
      ">": 30,
      "?": 31,
      "@": 32,
      "A": 33,
      "B": 34,
      "C": 35,
      "D": 36,
      "E": 37,
      "F": 38,
      "G": 39,
      "H": 40,
      "I": 41,
      "J": 42,
      "K": 43,
      "L": 44,
      "M": 45,
      "N": 46,
      "O": 47,
      "P": 48,
      "Q": 49,
      "R": 50,
      "S": 51,
      "T": 52,
      "U": 53,
      "V": 54,
      "W": 55,
      "X": 56,
      "Y": 57,
      "Z": 58,
      "[": 59,
      "\\": 60,
      "]": 61,
      "^": 62,
      "_": 63,
      "`": 64,
      "a": 65,
      "b": 66,
      "c": 67,
      "d": 68,
      "e": 69,
      "f": 70,
      "g": 71,
      "h": 72,
      "i": 73,
      "j": 74,
      "k": 75,
      "l": 76,
      "m": 77,
      "n": 78,
      "o": 79,
      "p": 80,
      "q": 81,
      "r": 82,
      "s": 83,
      "t": 84,
      "u": 85,
      "v": 86,
      "w": 87,
      "x": 88,
      "y": 89,
      "z": 90,
      "{": 91,
      "|": 92,
      "}": 93,
      "~": 94,
      "¡": 95,
      "¢": 96,
      "£": 97,
      "¤": 98,
      "¥": 99,
      "¦": 100,
      "§": 101,
      "¨": 102,
      "©": 103,
      "ª": 104,
      "«": 105,
      "¬": 106,
      "®": 107,
      "¯": 108,
      "°": 109,
      "±": 110,
      "²": 111,
      "³": 112,
      "´": 113,
      "µ": 114,
      "¶": 115,
      "·": 116,
      "¸": 117,
      "¹": 118,
      "º": 119,
      "»": 120,
      "¼": 121,
      "½": 122,
      "¾": 123,
      "¿": 124,
      "À": 125,
      "Á": 126,
      "Â": 127,
      "Ã": 128,
      "Ä": 129,
      "Å": 130,
      "Æ": 131,
      "Ç": 132,
      "È": 133,
      "É": 134,
      "Ê": 135,
      "Ë": 136,
      "Ì": 137,
      "Í": 138,
      "Î": 139,
      "Ï": 140,
      "Ð": 141,
      "Ñ": 142,
      "Ò": 143,
      "Ó": 144,
      "Ô": 145,
      "Õ": 146,
      "Ö": 147,
      "×": 148,
      "Ø": 149,
      "Ù": 150,
      "Ú": 151,
      "Û": 152,
      "Ü": 153,
      "Ý": 154,
      "Þ": 155,
      "ß": 156,
      "à": 157,
      "á": 158,
      "â": 159,
      "ã": 160,
      "ä": 161,
      "å": 162,
      "æ": 163,
      "ç": 164,
      "è": 165,
      "é": 166,
      "ê": 167,
      "ë": 168,
      "ì": 169,
      "í": 170,
      "î": 171,
      "ï": 172,
      "ð": 173,
      "ñ": 174,
      "ò": 175,
      "ó": 176,
      "ô": 177,
      "õ": 178,
      "ö": 179,
      "÷": 180,
      "ø": 181,
      "ù": 182,
      "ú": 183,
      "û": 184,
      "ü": 185,
      "ý": 186,
      "þ": 187,
      "ÿ": 188,
      "Ā": 189,
      "ā": 190,
      "Ă": 191,
      "ă": 192,
      "Ą": 193,
      "ą": 194,
      "Ć": 195,
      "ć": 196,
      "Ĉ": 197,
      "ĉ": 198,
      "Ċ": 199,
      "ċ": 200,
      "Č": 201,
      "č": 202,
      "Ď": 203,
      "ď": 204,
      "Đ": 205,
      "đ": 206,
      "Ē": 207,
      "ē": 208,
      "Ĕ": 209,
      "ĕ": 210,
      "Ė": 211,
      "ė": 212,
      "Ę": 213,
      "ę": 214,
      "Ě": 215,
      "ě": 216,
      "Ĝ": 217,
      "ĝ": 218,
      "Ğ": 219,
      "ğ": 220,
      "Ġ": 221,
      "ġ": 222,
      "Ģ": 223,
      "ģ": 224,
      "Ĥ": 225,
      "ĥ": 226,
      "Ħ": 227,
      "ħ": 228,
      "Ĩ": 229,
      "ĩ": 230,
      "Ī": 231,
      "ī": 232,
      "Ĭ": 233,
      "ĭ": 234,
      "Į": 235,
      "į": 236,
      "İ": 237,
      "ı": 238,
      "Ĳ": 239,
      "ĳ": 240,
      "Ĵ": 241,
      "ĵ": 242,
      "Ķ": 243,
      "ķ": 244,
      "ĸ": 245,
      "Ĺ": 246,
      "ĺ": 247,
      "Ļ": 248,
      "ļ": 249,
      "Ľ": 250,
      "ľ": 251,
      "Ŀ": 252,
      "ŀ": 253,
      "Ł": 254,
      "ł": 255,
      "Ń": 256,
      "ĠĠ": 257,
      "ĠĠĠĠ": 258,
      "ĠĠĠ": 259,
      "ĠĠĠĠĠĠĠĠ": 260,
      "se": 261,
      "in": 262,
      "ĠĠĠĠĠĠĠ": 263,
      "re": 264,
      "on": 265,
      "te": 266,
      "ĊĠĠĠĠĠĠĠ": 267,
      "ĊĠĠĠĠĠĠĠĠ": 268,
      "or": 269,
      "st": 270,
      "de": 271,
      "ĊĠĠĠ": 272,
      "th": 273,
      "le": 274,
      "Ġ=": 275,
      "lf": 276,
      "self": 277,
      "me": 278,
      "al": 279,
      "ti": 280,
      "er": 281,
      "Ġa": 282,
      "Ġ'": 283,
      "Ġi": 284,
      "ar": 285,
      "Ġc": 286,
      "en": 287,
      "ĊĠĠĠĠĠĠĠĠĠĠĠ": 288,
      "Ġf": 289,
      "an": 290,
      "Ġself": 291,
      "at": 292,
      "ro": 293,
      "Ġth": 294,
      "Ġre": 295,
      "tion": 296,
      "',": 297,
      "Ġ\"": 298,
      "Ġp": 299,
      "ur": 300,
      "ce": 301,
      "Ġn": 302,
      "ge": 303,
      "):": 304,
      "as": 305,
      "--": 306,
      "Ġt": 307,
      "Ġs": 308,
      "##": 309,
      "ue": 310,
      "mp": 311,
      "Ġo": 312,
      "ame": 313,
      "Ġthe": 314,
      "Ġin": 315,
      "ing": 316,
      "li": 317,
      "def": 318,
      "ct": 319,
      "lo": 320,
      "pe": 321,
      "ri": 322,
      "ate": 323,
      "un": 324,
      "Ġe": 325,
      "ĊĠĠĠĠĠĠĠĠĠĠĠĠĠĠĠĠ": 326,
      "Ġ#": 327,
      "di": 328,
      "fi": 329,
      "Ġb": 330,
      "co": 331,
      "ser": 332,
      "Ġm": 333,
      "Ġ(": 334,
      "ch": 335,
      "Ġw": 336,
      "ut": 337,
      "si": 338,
      "ĊĊĠĠĠ": 339,
      "Ġif": 340,
      "\"\"": 341,
      "()": 342,
      "nt": 343,
      "id": 344,
      "ra": 345,
      "ck": 346,
      "Ġdef": 347,
      "ul": 348,
      "urn": 349,
      "ad": 350,
      "ter": 351,
      "el": 352,
      "turn": 353,
      "name": 354,
      "ĊĠĠĠĠĠĠĠĠĠĠĠĠĠĠĠ": 355,
      "':": 356,
      "ot": 357,
      "')": 358,
      "Ġ[": 359,
      "('": 360,
      "ort": 361,
      "get": 362,
      "__": 363,
      "od": 364,
      "Ġis": 365,
      "Ġd": 366,
      "Ġfor": 367,
      "one": 368,
      "ty": 369,
      "Ġto": 370,
      "ab": 371,
      "Ġreturn": 372,
      "Ġv": 373,
      "is": 374,
      "----": 375,
      "Ġan": 376,
      "ĠT": 377,
      "Ġ0": 378,
      "ed": 379,
      "ode": 380,
      "####": 381,
      "il": 382,
      "00": 383,
      "up": 384,
      "ss": 385,
      "et": 386,
      "pa": 387,
      "con": 388,
      "==": 389,
      "it": 390,
      "ma": 391,
      "qu": 392,
      "ol": 393,
      "Ġh": 394,
      "),": 395,
      "test": 396,
      "es": 397,
      "ĊĊĠĠĠĠĠĠĠ": 398,
      "Ġu": 399,
      "xt": 400,
      "\",": 401,
      "Ġof": 402,
      "None": 403,
      "alue": 404,
      "ass": 405,
      "Ġcon": 406,
      "sert": 407,
      "Ġ\"\"\"": 408,
      "set": 409,
      "Ġst": 410,
      "op": 411,
      "mport": 412,
      "Ġ1": 413,
      "ction": 414,
      "ke": 415,
      "la": 416,
      "rom": 417,
      "']": 418,
      "ata": 419,
      "ĠĠĠĠĠ": 420,
      "ĊĊ": 421,
      "ver": 422,
      "._": 423,
      "der": 424,
      "ation": 425,
      "he": 426,
      "ult": 427,
      "ĠS": 428,
      "cl": 429,
      "))": 430,
      "rue": 431,
      "ve": 432,
      "vi": 433,
      "ment": 434,
      "Ġ+": 435,
      "Ġand": 436,
      "ĠA": 437,
      "sion": 438,
      "ap": 439,
      "Ġnot": 440,
      "ile": 441,
      "int": 442,
      "ule": 443,
      "Ġex": 444,
      "ĠC": 445,
      "Ġ-": 446,
      "::": 447,
      "ith": 448,
      "ect": 449,
      "Ġ%": 450,
      "ror": 451,
      "all": 452,
      "um": 453,
      "tr": 454,
      "am": 455,
      "ub": 456,
      "eld": 457,
      "gs": 458,
      "['": 459,
      "and": 460,
      "able": 461,
      "par": 462,
      "ĠĠĠĠĠĠĠĠĠĠĠĠĠĠĠĠ": 463,
      "bu": 464,
      "Ġas": 465,
      "type": 466,
      "],": 467,
      "bj": 468,
      "Ġ{": 469,
      "res": 470,
      "ted": 471,
      "lin": 472,
      "ĠI": 473,
      "age": 474,
      "to": 475,
      "ex": 476,
      "Ġde": 477,
      "ls": 478,
      "assert": 479,
      "(\"": 480,
      "ĠF": 481,
      "ase": 482,
      "odule": 483,
      "ent": 484,
      "Ġ_": 485,
      "Ġg": 486,
      "Ġdi": 487,
      "ĠNone": 488,
      "ĊĠĠĠĠĠ": 489,
      "ĊĠĠĠĠĠĠĠĠĠĠĠĠĠĠĠĠĠĠĠ": 490,
      "ĠL": 491,
      "Ġimport": 492,
      "file": 493,
      "ption": 494,
      "str": 495,
      "pro": 496,
      "Re": 497,
      "key": 498,
      "Ġ2": 499,
      "end": 500,
      "//": 501,
      "ta": 502,
      "Ġor": 503,
      "from": 504,
      "text": 505,
      "Ġbe": 506,
      "Ċĉ": 507,
      "Ġ==": 508,
      "for": 509,
      "ĠP": 510,
      "Ġtest": 511,
      "Ġco": 512,
      "list": 513,
      "ype": 514,
      "path": 515,
      "########": 516,
      "ht": 517,
      "--------": 518,
      "Ġr": 519,
      "Ġ:": 520,
      "time": 521,
      "Ġres": 522,
      "ĊĠ": 523,
      "put": 524,
      "add": 525,
      "ho": 526,
      "us": 527,
      "ig": 528,
      "per": 529,
      "ic": 530,
      "\")": 531,
      "====": 532,
      "class": 533,
      "='": 534,
      "alse": 535,
      "Ġname": 536,
      "qual": 537,
      "**": 538,
      "Er": 539,
      "ER": 540,
      "pt": 541,
      "Ġse": 542,
      "Ġwith": 543,
      "que": 544,
      "fo": 545,
      "ew": 546,
      "Error": 547,
      "out": 548,
      "True": 549,
      "bject": 550,
      "sc": 551,
      "len": 552,
      "ield": 553,
      "ance": 554,
      "po": 555,
      "ff": 556,
      "Ġpro": 557,
      "ault": 558,
      "ci": 559,
      "Ġlo": 560,
      "ns": 561,
      "Ġme": 562,
      "tem": 563,
      "ack": 564,
      "iz": 565,
      "])": 566,
      "our": 567,
      "IN": 568,
      "mat": 569,
      "Ġfile": 570,
      "app": 571,
      "ise": 572,
      "mo": 573,
      "Ġvalue": 574,
      "mple": 575,
      "data": 576,
      "ĠD": 577,
      "module": 578,
      "Ġel": 579,
      "art": 580,
      "red": 581,
      "\":": 582,
      "ow": 583,
      "wor": 584,
      "value": 585,
      "ĊĠĠĠĠĠĠĠĠĠĠĠĠĠĠĠĠĠĠĠĠĠĠĠĠ": 586,
      "Ġelse": 587,
      "ys": 588,
      "args": 589,
      "ly": 590,
      "Equal": 591,
      "fig": 592,
      "ĠO": 593,
      "thod": 594,
      "che": 595,
      "mm": 596,
      "est": 597,
      "ĠG": 598,
      "tri": 599,
      "code": 600,
      "Ġar": 601,
      "date": 602,
      "ĠM": 603,
      "line": 604,
      "ber": 605,
      "lic": 606,
      "In": 607,
      "ure": 608,
      "sh": 609,
      "Ġma": 610,
      "stance": 611,
      "Ġy": 612,
      "quest": 613,
      "01": 614,
      "ON": 615,
      "ource": 616,
      "dd": 617,
      "ange": 618,
      "AT": 619,
      "Ġstr": 620,
      "ang": 621,
      "reate": 622,
      "Ġpar": 623,
      "\"\"\"": 624,
      "Ġun": 625,
      "Ġthat": 626,
      "Ġ*": 627,
      "=\"": 628,
      "assertEqual": 629,
      "ctor": 630,
      "ist": 631,
      "mode": 632,
      "url": 633,
      "Ġl": 634,
      "param": 635,
      "Ġ__": 636,
      "val": 637,
      "unt": 638,
      "ĊĠĠĠĠĠĠĠĠĠĠĠĠĠĠĠĠĠĠĠĠĠĠĠĠĠĠĠĠĠĠĠĠ": 639,
      "rent": 640,
      "Ġon": 641,
      "Ġthis": 642,
      "ag": 643,
      "ĠW": 644,
      "ac": 645,
      "import": 646,
      "py": 647,
      "unction": 648,
      "IT": 649,
      "Ġ3": 650,
      "ry": 651,
      "Ġit": 652,
      "ĠN": 653,
      "ES": 654,
      "Ġen": 655,
      "bo": 656,
      "pre": 657,
      "Ġ`": 658,
      "'),": 659,
      "Ġra": 660,
      "Ġ('": 661,
      "ĠE": 662,
      "Ġset": 663,
      "Ġget": 664,
      "Ġ<": 665,
      "Ġdata": 666,
      "fa": 667,
      "ild": 668,
      "ader": 669,
      "cess": 670,
      "Ġx": 671,
      "rint": 672,
      "ĊĠĠĠĠĠĠĠĠĠĠĠĠĠĠĠĠĠĠ": 673,
      "low": 674,
      "Ġuse": 675,
      "om": 676,
      "ense": 677,
      "pon": 678,
      "oc": 679,
      ").": 680,
      "sp": 681,
      "Ġch": 682,
      "tp": 683,
      "roup": 684,
      "ne": 685,
      "Ċĉĉ": 686,
      "Ġfrom": 687,
      "ind": 688,
      "AR": 689,
      "Ġ>": 690,
      "Ġpa": 691,
      "if": 692,
      "atch": 693,
      "dir": 694,
      "ary": 695,
      "ca": 696,
      "db": 697,
      "field": 698,
      "ĠB": 699,
      "Ġns": 700,
      "Ġby": 701,
      "Ġassert": 702,
      "..": 703,
      "Ġwh": 704,
      "error": 705,
      "ms": 706,
      "ator": 707,
      "32": 708,
      "10": 709,
      "ĠThe": 710,
      "ip": 711,
      "ssage": 712,
      "12": 713,
      "Con": 714,
      "ĠTrue": 715,
      "cept": 716,
      "ĊĠĠĠĠĠĠĠĠĠĠĠĠĠĠĠĠĠĠĠĠĠĠĠ": 717,
      "ĠĊĠĠĠĠĠĠĠĠĠĠĠĠĠĠĠĠĠĠ": 718,
      "port": 719,
      "ore": 720,
      "__(": 721,
      "vice": 722,
      "ir": 723,
      "ten": 724,
      "und": 725,
      "OR": 726,
      "ener": 727,
      "ther": 728,
      "scri": 729,
      "Ġtype": 730,
      "dex": 731,
      "ponse": 732,
      "pec": 733,
      "Ġout": 734,
      "'):": 735,
      "os": 736,
      "Ġat": 737,
      "ĠU": 738,
      "read": 739,
      "append": 740,
      "Ġal": 741,
      "EN": 742,
      "jo": 743,
      "tes": 744,
      "ok": 745,
      "Ġraise": 746,
      "Ġos": 747,
      "AL": 748,
      "################": 749,
      "late": 750,
      "user": 751,
      "rite": 752,
      "ress": 753,
      "Ġresult": 754,
      "ĠĠĠĠĠĠ": 755,
      "ĠFalse": 756,
      "ml": 757,
      "wa": 758,
      "ari": 759,
      "ument": 760,
      "col": 761,
      "uth": 762,
      "========": 763,
      "tic": 764,
      "method": 765,
      "ock": 766,
      "tent": 767,
      "Ġ@": 768,
      "Ġlist": 769,
      "ded": 770,
      "fe": 771,
      "64": 772,
      "lib": 773,
      "Test": 774,
      "ET": 775,
      "Ġ)": 776,
      "----------------": 777,
      "ill": 778,
      "([": 779,
      "ings": 780,
      "Ġwe": 781,
      "vent": 782,
      "qui": 783,
      "gn": 784,
      "object": 785,
      "tribu": 786,
      "Ġare": 787,
      "Ġ['": 788,
      "Ġ}": 789,
      "Ġkey": 790,
      "Ġ{'": 791,
      "Field": 792,
      "log": 793,
      "ize": 794,
      "ds": 795,
      "ans": 796,
      "False": 797,
      "icense": 798,
      "ĠRe": 799,
      "work": 800,
      "heck": 801,
      "pp": 802,
      "ray": 803,
      "Type": 804,
      "Ġfunction": 805,
      "ze": 806,
      "dict": 807,
      "temp": 808,
      "Ġver": 809,
      "ou": 810,
      "ave": 811,
      "ĠV": 812,
      "ask": 813,
      "ception": 814,
      "info": 815,
      "stri": 816,
      "lay": 817,
      "Ġmode": 818,
      "ĊĊĠ": 819,
      "ĠR": 820,
      "25": 821,
      "Ġlen": 822,
      "ces": 823,
      "Ġcl": 824,
      "ec": 825,
      "init": 826,
      "min": 827,
      "ren": 828,
      "kw": 829,
      "ble": 830,
      "lock": 831,
      "ext": 832,
      "ust": 833,
      "son": 834,
      "count": 835,
      "ger": 836,
      "():": 837,
      "ph": 838,
      "arget": 839,
      "ST": 840,
      "Ġ4": 841,
      "instance": 842,
      "Ġcls": 843,
      "ĠLicense": 844,
      "11": 845,
      "net": 846,
      "Ġ+=": 847,
      "den": 848,
      "Ġdefault": 849,
      "ree": 850,
      "jang": 851,
      "tions": 852,
      "lif": 853,
      "uld": 854,
      ".__": 855,
      "ft": 856,
      "tive": 857,
      "jango": 858,
      "Ġmodule": 859,
      "andle": 860,
      "mmand": 861,
      "Ġtry": 862,
      "comp": 863,
      "lient": 864,
      "ample": 865,
      "his": 866,
      "ant": 867,
      "////": 868,
      "ĠH": 869,
      "Ġprint": 870,
      "Ġexcept": 871,
      "De": 872,
      "update": 873,
      "ses": 874,
      "string": 875,
      "Ġpre": 876,
      "tain": 877,
      "ters": 878,
      "AN": 879,
      "Ġso": 880,
      "ĊĠĠĠĠĠĠĠĠĠ": 881,
      "Ġro": 882,
      "Ġcan": 883,
      "umber": 884,
      "default": 885,
      "Ġdo": 886,
      "mb": 887,
      "config": 888,
      "no": 889,
      "size": 890,
      "''": 891,
      "Ġnew": 892,
      "try": 893,
      "back": 894,
      "cur": 895,
      "atus": 896,
      "pen": 897,
      "thon": 898,
      "SE": 899,
      "Ġtime": 900,
      "Ġfield": 901,
      "abel": 902,
      "gin": 903,
      "join": 904,
      "[\"": 905,
      "LE": 906,
      "RE": 907,
      "format": 908,
      "Ġobject": 909,
      "peci": 910,
      "Ġwill": 911,
      "load": 912,
      "ght": 913,
      "ll": 914,
      "cal": 915,
      "Ġelif": 916,
      "ken": 917,
      "uct": 918,
      "Pro": 919,
      "Ex": 920,
      "://": 921,
      "Ġuser": 922,
      "group": 923,
      "ape": 924,
      "Ġ##": 925,
      "gra": 926,
      "opy": 927,
      "start": 928,
      "state": 929,
      "Ġsho": 930,
      "Ġpath": 931,
      "node": 932,
      "St": 933,
      "UT": 934,
      "uti": 935,
      "'}": 936,
      "\"]": 937,
      "ute": 938,
      "sed": 939,
      "ume": 940,
      "ost": 941,
      "Ġ[]": 942,
      "Ġlog": 943,
      "own": 944,
      "Ġoption": 945,
      "Ġhe": 946,
      "uc": 947,
      "IC": 948,
      "Ġno": 949,
      "Ġconst": 950,
      "ong": 951,
      "write": 952,
      "ĊĊĠĠĠĠĠĠĠĠĠĠĠ": 953,
      "sub": 954,
      "fields": 955,
      "scription": 956,
      "com": 957,
      "kwargs": 958,
      "Ġ5": 959,
      "mage": 960,
      "ĠThis": 961,
      "attr": 962,
      "ject": 963,
      "form": 964,
      "Ġhas": 965,
      "04": 966,
      "Co": 967,
      "lement": 968,
      "13": 969,
      "fix": 970,
      "Ġ\\": 971,
      "ated": 972,
      "main": 973,
      "og": 974,
      "16": 975,
      "mber": 976,
      "nd": 977,
      "ww": 978,
      "ull": 979,
      "Ġnp": 980,
      "create": 981,
      "ĠIf": 982,
      "da": 983,
      "Ġsys": 984,
      "Name": 985,
      "Ġpass": 986,
      "ariable": 987,
      "max": 988,
      "cor": 989,
      "Ġ[],": 990,
      "by": 991,
      "models": 992,
      "0000": 993,
      "ery": 994,
      "'],": 995,
      "02": 996,
      "gth": 997,
      "ID": 998,
      "tribute": 999,
      "server": 1000,
      "json": 1001,
      "Get": 1002,
      "iv": 1003,
      "Ġline": 1004,
      "ard": 1005,
      "Ġall": 1006,
      "Ġsub": 1007,
      "gument": 1008,
      "tial": 1009,
      "ĠIn": 1010,
      "Ġ**": 1011,
      "())": 1012,
      "Ġcomp": 1013,
      "http": 1014,
      "Ġversion": 1015,
      "clu": 1016,
      "im": 1017,
      "core": 1018,
      "right": 1019,
      "99": 1020,
      "Ġclass": 1021,
      "Ġk": 1022,
      "version": 1023,
      "ee": 1024,
      "orm": 1025,
      "Ġle": 1026,
      "word": 1027,
      "CT": 1028,
      "Ġsup": 1029,
      "ign": 1030,
      "Ġnode": 1031,
      "Ġbu": 1032,
      "Ġsh": 1033,
      "ound": 1034,
      "Ġ->": 1035,
      "ime": 1036,
      "sign": 1037,
      "pi": 1038,
      "čĊĠĠĠĠĠĠĠ": 1039,
      "``": 1040,
      ".\"\"\"": 1041,
      "vir": 1042,
      "pected": 1043,
      "sing": 1044,
      "with": 1045,
      "15": 1046,
      "arch": 1047,
      "Ġcol": 1048,
      "Ch": 1049,
      "Ġadd": 1050,
      "lit": 1051,
      "Ġ{}": 1052,
      "item": 1053,
      "ail": 1054,
      "].": 1055,
      "Ġrequest": 1056,
      "ĉĉ": 1057,
      "inter": 1058,
      "Ġstring": 1059,
      "arn": 1060,
      "ual": 1061,
      "(),": 1062,
      "cation": 1063,
      "md": 1064,
      "run": 1065,
      "Ġac": 1066,
      "Ġcontext": 1067,
      "ware": 1068,
      "request": 1069,
      "ight": 1070,
      "lace": 1071,
      "Ġoutput": 1072,
      "link": 1073,
      "check": 1074,
      "ION": 1075,
      "ctory": 1076,
      "Ġshould": 1077,
      "valid": 1078,
      "14": 1079,
      "index": 1080,
      "22": 1081,
      "34": 1082,
      "Ġmethod": 1083,
      "Set": 1084,
      "18": 1085,
      "ts": 1086,
      "quired": 1087,
      "loat": 1088,
      "ory": 1089,
      "vel": 1090,
      "ream": 1091,
      "RO": 1092,
      "DE": 1093,
      "Ġcur": 1094,
      "base": 1095,
      "ark": 1096,
      "unc": 1097,
      "ding": 1098,
      "result": 1099,
      "context": 1100,
      "Ġconfig": 1101,
      "host": 1102,
      "\\\\": 1103,
      "Ġcheck": 1104,
      "'])": 1105,
      "Ġspeci": 1106,
      "return": 1107,
      "</": 1108,
      "Ġint": 1109,
      "Value": 1110,
      "!=": 1111,
      "nection": 1112,
      "obj": 1113,
      "member": 1114,
      "Ġpo": 1115,
      "****": 1116,
      "do": 1117,
      "tle": 1118,
      "ash": 1119,
      "stribu": 1120,
      "ref": 1121,
      "parse": 1122,
      "Add": 1123,
      "Ġ``": 1124,
      "Ġerror": 1125,
      "Ġper": 1126,
      "Ġla": 1127,
      "čĊĠĠĠ": 1128,
      "we": 1129,
      "map": 1130,
      "query": 1131,
      "ine": 1132,
      "'t": 1133,
      "Ġpy": 1134,
      "reg": 1135,
      "Ke": 1136,
      "Ġ!=": 1137,
      "77": 1138,
      "Ġval": 1139,
      ">>": 1140,
      "ulti": 1141,
      "pace": 1142,
      "row": 1143,
      "array": 1144,
      "Ġapp": 1145,
      "led": 1146,
      "mit": 1147,
      "ix": 1148,
      "ED": 1149,
      "sent": 1150,
      "ak": 1151,
      "so": 1152,
      "33": 1153,
      "'\\": 1154,
      "rep": 1155,
      "AM": 1156,
      "TER": 1157,
      "ich": 1158,
      "'s": 1159,
      "template": 1160,
      "tings": 1161,
      "params": 1162,
      "Ġother": 1163,
      "sible": 1164,
      "20": 1165,
      "Ġurl": 1166,
      "19": 1167,
      "pl": 1168,
      "ĊĠĠĠĠĠĠĠĠĠĠĠĠĠĠĠĠĠĠĠĠĠĠĠĠĠĠĠ": 1169,
      "oid": 1170,
      "mpty": 1171,
      "Ġhave": 1172,
      "File": 1173,
      "Ġstate": 1174,
      "ite": 1175,
      "django": 1176,
      "Ġresponse": 1177,
      "auth": 1178,
      "AS": 1179,
      "use": 1180,
      "ud": 1181,
      "Ġ/": 1182,
      "ally": 1183,
      "86": 1184,
      "move": 1185,
      "rame": 1186,
      "ay": 1187,
      "message": 1188,
      "ann": 1189,
      "ps": 1190,
      "lob": 1191,
      "ers": 1192,
      "IL": 1193,
      "24": 1194,
      "rc": 1195,
      "17": 1196,
      "Key": 1197,
      "mail": 1198,
      "output": 1199,
      "network": 1200,
      "rect": 1201,
      "Ġused": 1202,
      "tern": 1203,
      "Ġ|": 1204,
      "status": 1205,
      "ING": 1206,
      "sta": 1207,
      "utils": 1208,
      "ity": 1209,
      "input": 1210,
      "Ġdict": 1211,
      "Ġli": 1212,
      "title": 1213,
      "av": 1214,
      "Ġparam": 1215,
      "30": 1216,
      "AB": 1217,
      "Ġcreate": 1218,
      "ax": 1219,
      "ump": 1220,
      "andler": 1221,
      "new": 1222,
      "čĊ": 1223,
      "table": 1224,
      "ach": 1225,
      "sg": 1226,
      "Ġ6": 1227,
      "Ġisinstance": 1228,
      "55": 1229,
      "UR": 1230,
      "root": 1231,
      "tring": 1232,
      "Ġcode": 1233,
      "Ġbo": 1234,
      "be": 1235,
      "yn": 1236,
      "man": 1237,
      "model": 1238,
      "tra": 1239,
      "Ġcall": 1240,
      "andom": 1241,
      "Ġitem": 1242,
      "Ġht": 1243,
      "CH": 1244,
      "Ġmessage": 1245,
      "api": 1246,
      "names": 1247,
      "ublic": 1248,
      "Ġargs": 1249,
      "call": 1250,
      "clo": 1251,
      "().": 1252,
      "Ġ&": 1253,
      "AG": 1254,
      "Ġrun": 1255,
      "Ġinstance": 1256,
      "80": 1257,
      "client": 1258,
      "cs": 1259,
      "ffer": 1260,
      "ĠAN": 1261,
      "Par": 1262,
      "Ġany": 1263,
      "lect": 1264,
      "Ġyou": 1265,
      "bug": 1266,
      "length": 1267,
      "lete": 1268,
      "perty": 1269,
      "lean": 1270,
      "At": 1271,
      "66": 1272,
      "arg": 1273,
      "sys": 1274,
      "Ġ.": 1275,
      "35": 1276,
      "IG": 1277,
      "lines": 1278,
      "Ġne": 1279,
      "================": 1280,
      "stru": 1281,
      "AP": 1282,
      "uto": 1283,
      "Ġend": 1284,
      "clude": 1285,
      "uf": 1286,
      "action": 1287,
      "\"),": 1288,
      "fil": 1289,
      "fied": 1290,
      "header": 1291,
      "mis": 1292,
      "UL": 1293,
      "split": 1294,
      "Ġreg": 1295,
      "List": 1296,
      "const": 1297,
      "ations": 1298,
      "88": 1299,
      "Ġbase": 1300,
      "doc": 1301,
      "label": 1302,
      "Ġmo": 1303,
      "Id": 1304,
      "Ġid": 1305,
      "Ġ>>>": 1306,
      "umn": 1307,
      "org": 1308,
      "ENT": 1309,
      "response": 1310,
      "IS": 1311,
      "ran": 1312,
      "types": 1313,
      "Ġwhich": 1314,
      "Ġz": 1315,
      "ĠEx": 1316,
      "content": 1317,
      "Ġtext": 1318,
      "Ġwor": 1319,
      "rans": 1320,
      "Ġvi": 1321,
      "Res": 1322,
      "ĠX": 1323,
      "Ġinput": 1324,
      "Ġbut": 1325,
      "dent": 1326,
      "En": 1327,
      "msg": 1328,
      "Ġnumber": 1329,
      "rap": 1330,
      "Ġcopy": 1331,
      "((": 1332,
      "'))": 1333,
      "Ġunder": 1334,
      "Ġj": 1335,
      "Ġmatch": 1336,
      "ting": 1337,
      "Ġvalues": 1338,
      "sk": 1339,
      "ftware": 1340,
      "Di": 1341,
      "74": 1342,
      "Ġstart": 1343,
      "36": 1344,
      "view": 1345,
      "tin": 1346,
      "Ġtarget": 1347,
      "AC": 1348,
      "84": 1349,
      "Ġsource": 1350,
      "ody": 1351,
      "Me": 1352,
      "cre": 1353,
      "ved": 1354,
      "39": 1355,
      "sions": 1356,
      "elp": 1357,
      "Un": 1358,
      "pri": 1359,
      "html": 1360,
      "print": 1361,
      "ĊĠĠĠĠ": 1362,
      "uple": 1363,
      "service": 1364,
      "source": 1365,
      "Time": 1366,
      "56": 1367,
      "////////": 1368,
      "Ġdescription": 1369,
      "'.": 1370,
      "################################": 1371,
      "ner": 1372,
      "Ġone": 1373,
      "tro": 1374,
      "target": 1375,
      "orted": 1376,
      "ome": 1377,
      "To": 1378,
      "ĠTest": 1379,
      "Ġwhen": 1380,
      "pv": 1381,
      "Ġdoc": 1382,
      "rial": 1383,
      "ors": 1384,
      "Mode": 1385,
      "},": 1386,
      "OT": 1387,
      "ises": 1388,
      "pack": 1389,
      "Ġmax": 1390,
      "var": 1391,
      "shape": 1392,
      "bin": 1393,
      "urse": 1394,
      "Ġcontain": 1395,
      "...": 1396,
      "not": 1397,
      "29": 1398,
      "fy": 1399,
      "50": 1400,
      "37": 1401,
      "Ġmodel": 1402,
      "point": 1403,
      "comm": 1404,
      "its": 1405,
      "Ġheader": 1406,
      "89": 1407,
      "cri": 1408,
      "face": 1409,
      "men": 1410,
      "cate": 1411,
      "process": 1412,
      "ĠQ": 1413,
      "Ġcommand": 1414,
      "Ġrequired": 1415,
      "itial": 1416,
      "ties": 1417,
      "token": 1418,
      "options": 1419,
      "Ġexpected": 1420,
      "foo": 1421,
      "option": 1422,
      "Ġargument": 1423,
      "ameters": 1424,
      "Ġrange": 1425,
      "structor": 1426,
      "59": 1427,
      "tifi": 1428,
      "ister": 1429,
      "event": 1430,
      "match": 1431,
      "ĠReturn": 1432,
      "Ġfa": 1433,
      "Ġdate": 1434,
      "ler": 1435,
      "buf": 1436,
      "Ġexp": 1437,
      "EX": 1438,
      "CO": 1439,
      "NU": 1440,
      "ANT": 1441,
      "teger": 1442,
      "Ġmay": 1443,
      "--------------------------------": 1444,
      "{'": 1445,
      "ols": 1446,
      "ld": 1447,
      "ĠCon": 1448,
      "Ġ'''": 1449,
      "tag": 1450,
      "Data": 1451,
      "equal": 1452,
      "Ġcurrent": 1453,
      "Ġonly": 1454,
      "Ġhttp": 1455,
      "ager": 1456,
      "block": 1457,
      "ua": 1458,
      "values": 1459,
      "ĊĠĠĠĠĠĠĠĠĠĠĠĠĠĠĠĠĠĠĠĠĠĠĠĠĠĠĠĠĠĠĠĠĠĠĠĠĠĠĠĠ": 1460,
      "change": 1461,
      "objects": 1462,
      "ature": 1463,
      "ĠGener": 1464,
      "27": 1465,
      "idth": 1466,
      "ĊĠĠĠĠĠĠĠĠĠĠĠĠ": 1467,
      "Ġtra": 1468,
      "IM": 1469,
      "ments": 1470,
      "Ġmust": 1471,
      "irst": 1472,
      "Ġdistribu": 1473,
      "exp": 1474,
      "Ġformat": 1475,
      "Address": 1476,
      "54": 1477,
      "Ġindex": 1478,
      "26": 1479,
      "cy": 1480,
      "TT": 1481,
      "ures": 1482,
      "ops": 1483,
      "LO": 1484,
      "feren": 1485,
      "lection": 1486,
      "ĠDe": 1487,
      "ĠY": 1488,
      "viron": 1489,
      "open": 1490,
      "[:": 1491,
      "trol": 1492,
      "000": 1493,
      "mod": 1494,
      "Ġchar": 1495,
      "iven": 1496,
      "rectory": 1497,
      "lobal": 1498,
      "Ġmsg": 1499,
      "ies": 1500,
      "filename": 1501,
      "lan": 1502,
      "Ġad": 1503,
      "Ġfields": 1504,
      "Ser": 1505,
      "build": 1506,
      "num": 1507,
      "err": 1508,
      "sor": 1509,
      "PE": 1510,
      "Ġoptions": 1511,
      "PO": 1512,
      "Se": 1513,
      "quen": 1514,
      "trans": 1515,
      "std": 1516,
      "adata": 1517,
      "ug": 1518,
      "Ġgener": 1519,
      "Ġ7": 1520,
      "tail": 1521,
      "cted": 1522,
      "coding": 1523,
      "=[": 1524,
      "icode": 1525,
      "Ġtoken": 1526,
      "][": 1527,
      "indow": 1528,
      "pass": 1529,
      "are": 1530,
      "command": 1531,
      "func": 1532,
      "bs": 1533,
      "oo": 1534,
      "uid": 1535,
      "Ġup": 1536,
      "Ra": 1537,
      "Case": 1538,
      "ocket": 1539,
      "ging": 1540,
      "filter": 1541,
      "uration": 1542,
      "Ġ'%": 1543,
      "www": 1544,
      "ep": 1545,
      "nsor": 1546,
      "(_": 1547,
      "python": 1548,
      "ĠOR": 1549,
      "lags": 1550,
      "Ġopen": 1551,
      "})": 1552,
      "Ġ--": 1553,
      "AD": 1554,
      "87": 1555,
      "cr": 1556,
      "Ġ'\\": 1557,
      "String": 1558,
      "Ġobj": 1559,
      "char": 1560,
      "Ġnames": 1561,
      "address": 1562,
      "Base": 1563,
      "Ġcontent": 1564,
      "Ġte": 1565,
      "Ġevent": 1566,
      "ric": 1567,
      "Ġsize": 1568,
      "image": 1569,
      "Ġchange": 1570,
      "ITH": 1571,
      "Ġgroup": 1572,
      "ETTER": 1573,
      "copy": 1574,
      "Po": 1575,
      "olume": 1576,
      "cord": 1577,
      "ĠLETTER": 1578,
      "script": 1579,
      "ids": 1580,
      "ain": 1581,
      "inal": 1582,
      "ote": 1583,
      "Ġfiles": 1584,
      "Ċĉĉĉ": 1585,
      "Ġread": 1586,
      "df": 1587,
      "sition": 1588,
      "the": 1589,
      "np": 1590,
      "Ġhost": 1591,
      "Ġdb": 1592,
      "function": 1593,
      "ĠValue": 1594,
      "Ġaction": 1595,
      "Ar": 1596,
      "ste": 1597,
      "ĊĠĠĠĠĠĠĠĠĠĠĠĠĠ": 1598,
      "Ġext": 1599,
      "close": 1600,
      "duct": 1601,
      "44": 1602,
      "ĠJ": 1603,
      "'}),": 1604,
      "tributes": 1605,
      "page": 1606,
      "mbda": 1607,
      "ESS": 1608,
      "float": 1609,
      "Char": 1610,
      "ĠPy": 1611,
      "keys": 1612,
      "Ġsuper": 1613,
      "exten": 1614,
      "mation": 1615,
      "Ġ10": 1616,
      "store": 1617,
      "of": 1618,
      "ath": 1619,
      "Ġpl": 1620,
      "ĠIN": 1621,
      "Ġ]": 1622,
      "find": 1623,
      "utf": 1624,
      "Ġarray": 1625,
      "ĠAn": 1626,
      "Ġgiven": 1627,
      "exec": 1628,
      "any": 1629,
      "Ġdoes": 1630,
      "conn": 1631,
      "ugin": 1632,
      "fail": 1633,
      "ĠOF": 1634,
      "uint": 1635,
      "ion": 1636,
      "cache": 1637,
      "ili": 1638,
      "Ġdjango": 1639,
      "Ġinter": 1640,
      "57": 1641,
      "Ġfirst": 1642,
      "09": 1643,
      "03": 1644,
      "HE": 1645,
      "Attribute": 1646,
      "void": 1647,
      "order": 1648,
      "DO": 1649,
      "spec": 1650,
      "28": 1651,
      "xml": 1652,
      "lot": 1653,
      "Ġserver": 1654,
      "Ġmore": 1655,
      "Ġ',": 1656,
      "mark": 1657,
      "MP": 1658,
      "flow": 1659,
      "Ġ},": 1660,
      "iter": 1661,
      "my": 1662,
      "ĠWITH": 1663,
      "ĠGNU": 1664,
      "FF": 1665,
      "ĠSee": 1666,
      "empty": 1667,
      "US": 1668,
      "cript": 1669,
      "ists": 1670,
      "dition": 1671,
      "iled": 1672,
      "','": 1673,
      "\".": 1674,
      "čĊĠĠĠĠĠĠĠĠĠĠĠ": 1675,
      "Ġparent": 1676,
      "rid": 1677,
      "Ġupdate": 1678,
      "gram": 1679,
      "Ġarg": 1680,
      "here": 1681,
      "license": 1682,
      "Ġmock": 1683,
      "ĠPublic": 1684,
      "Model": 1685,
      "Ġvalid": 1686,
      "Ġop": 1687,
      "tual": 1688,
      "Ġ(\"": 1689,
      "06": 1690,
      "idget": 1691,
      "Object": 1692,
      "reak": 1693,
      "mary": 1694,
      "Ġ8": 1695,
      "ĠGeneral": 1696,
      "ell": 1697,
      "ML": 1698,
      "Ġfol": 1699,
      "bar": 1700,
      "tity": 1701,
      "xy": 1702,
      "38": 1703,
      "Ġca": 1704,
      ":`": 1705,
      "Ġpack": 1706,
      "fore": 1707,
      "parent": 1708,
      "Ġmodels": 1709,
      "ql": 1710,
      "ither": 1711,
      "pos": 1712,
      "Bu": 1713,
      "~~": 1714,
      "project": 1715,
      "Node": 1716,
      "05": 1717,
      "uage": 1718,
      "EST": 1719,
      "Ġhelp": 1720,
      "Up": 1721,
      "ĠValueError": 1722,
      "annel": 1723,
      ")))": 1724,
      "files": 1725,
      "Exception": 1726,
      "Ġprovi": 1727,
      "ake": 1728,
      "imple": 1729,
      "session": 1730,
      "anguage": 1731,
      "tadata": 1732,
      "search": 1733,
      "UN": 1734,
      "otal": 1735,
      "Ġwork": 1736,
      "signed": 1737,
      "Ġroot": 1738,
      "child": 1739,
      "ĊĠĠĠĠĠĠĠĠĠĠĠĠĠĠĠĠĠĠĠĠĠĠĠĠĠĠĠĠĠĠĠĠĠĠĠĠĠĠĠĠĠĠĠĠĠĠĠĠ": 1740,
      "dit": 1741,
      "Ġimp": 1742,
      "\">": 1743,
      "items": 1744,
      "stream": 1745,
      "TestCase": 1746,
      "Ġuid": 1747,
      "Ġmin": 1748,
      "Ġ9": 1749,
      "Ġvariable": 1750,
      "settings": 1751,
      "Ġtrans": 1752,
      "old": 1753,
      "ration": 1754,
      "opyright": 1755,
      "lease": 1756,
      "debug": 1757,
      "Ġoper": 1758,
      "ized": 1759,
      "cmd": 1760,
      "ALL": 1761,
      "Ipv": 1762,
      "Not": 1763,
      "pect": 1764,
      "task": 1765,
      "TR": 1766,
      "Return": 1767,
      "Ġlabel": 1768,
      "ference": 1769,
      "ittest": 1770,
      "Ġback": 1771,
      "IP": 1772,
      "raw": 1773,
      "xb": 1774,
      "yle": 1775,
      "lated": 1776,
      "Ġpart": 1777,
      "unk": 1778,
      "ĊĠĠĠĠĠĠĠĠĠĠ": 1779,
      "07": 1780,
      "tinue": 1781,
      "device": 1782,
      "ormal": 1783,
      "Ġ201": 1784,
      "ous": 1785,
      "sy": 1786,
      "ameter": 1787,
      "Ġfilename": 1788,
      "23": 1789,
      "Ġauth": 1790,
      "arning": 1791,
      "fic": 1792,
      "izer": 1793,
      "Ġfil": 1794,
      "fir": 1795,
      "fter": 1796,
      "201": 1797,
      "Ġparser": 1798,
      "Check": 1799,
      "xa": 1800,
      "********": 1801,
      "description": 1802,
      "ĠReturns": 1803,
      "ĠK": 1804,
      "mock": 1805,
      "Ġover": 1806,
      "delete": 1807,
      "Ġusing": 1808,
      "ched": 1809,
      "ast": 1810,
      "Raises": 1811,
      "xc": 1812,
      "env": 1813,
      "replace": 1814,
      "assertTrue": 1815,
      "ĊĠĠĠĠĠĠĠĠĠĠĠĠĠĠĠĠĠĠĠĠĠĠĠĠĠĠĠĠĠĠĠ": 1816,
      "Ġtable": 1817,
      "current": 1818,
      "Ġelement": 1819,
      "struct": 1820,
      "ĠANY": 1821,
      "67": 1822,
      "lag": 1823,
      "Ġform": 1824,
      "queue": 1825,
      ")),": 1826,
      "Ġquery": 1827,
      "tocol": 1828,
      "property": 1829,
      "Ġwhile": 1830,
      "Is": 1831,
      "local": 1832,
      "Ġrep": 1833,
      "Ġimage": 1834,
      "ning": 1835,
      "splay": 1836,
      "*-": 1837,
      "sum": 1838,
      "Ġag": 1839,
      "200": 1840,
      "eta": 1841,
      "range": 1842,
      "alled": 1843,
      "Ġport": 1844,
      "xe": 1845,
      "Ġlong": 1846,
      "Ġsy": 1847,
      "other": 1848,
      "ĠCo": 1849,
      "cp": 1850,
      "Ġnet": 1851,
      "Ġmake": 1852,
      "Ġblock": 1853,
      "Ġdistributed": 1854,
      "assertRaises": 1855,
      "ven": 1856,
      "lied": 1857,
      "For": 1858,
      "cope": 1859,
      "ton": 1860,
      "prefix": 1861,
      "Ġparams": 1862,
      "lication": 1863,
      "CON": 1864,
      "Ġorder": 1865,
      "rate": 1866,
      "Ġ\"\\": 1867,
      "ĠCON": 1868,
      "formation": 1869,
      "ync": 1870,
      "Ċĉĉĉĉ": 1871,
      "Text": 1872,
      "ie": 1873,
      ")]": 1874,
      "make": 1875,
      "69": 1876,
      "OUT": 1877,
      "TTP": 1878,
      "fault": 1879,
      "constructor": 1880,
      "present": 1881,
      "Ġ-*-": 1882,
      "over": 1883,
      "vert": 1884,
      "ice": 1885,
      "cls": 1886,
      "49": 1887,
      "ont": 1888,
      "amples": 1889,
      "Ġclient": 1890,
      "lish": 1891,
      "ib": 1892,
      "ful": 1893,
      "Ġq": 1894,
      "ale": 1895,
      "level": 1896,
      "layer": 1897,
      "ĠCopyright": 1898,
      "User": 1899,
      "Ġbuild": 1900,
      "Ġinto": 1901,
      "Ġeither": 1902,
      "ifi": 1903,
      "rix": 1904,
      "ative": 1905,
      "Fa": 1906,
      "ui": 1907,
      "swith": 1908,
      "abled": 1909,
      "ĠUn": 1910,
      "Ġfound": 1911,
      "ive": 1912,
      "strip": 1913,
      "DI": 1914,
      "ped": 1915,
      "asses": 1916,
      "how": 1917,
      "The": 1918,
      "Ġexception": 1919,
      "ARR": 1920,
      "Ġattr": 1921,
      "ITY": 1922,
      "Ġcomm": 1923,
      "Ġeach": 1924,
      "trib": 1925,
      "Ġ200": 1926,
      "resource": 1927,
      "Ġwithout": 1928,
      "Ġneed": 1929,
      "Ġcase": 1930,
      "Tag": 1931,
      "post": 1932,
      "ĠSt": 1933,
      "ATIN": 1934,
      "pop": 1935,
      "atab": 1936,
      "Ġsee": 1937,
      "OP": 1938,
      "go": 1939,
      "licy": 1940,
      "ression": 1941,
      "ined": 1942,
      "frame": 1943,
      "No": 1944,
      "Ac": 1945,
      "onent": 1946,
      "Ġtag": 1947,
      "ĠLATIN": 1948,
      "xf": 1949,
      "Ġconnection": 1950,
      "ATE": 1951,
      "ĠAr": 1952,
      "Ġmodi": 1953,
      "quence": 1954,
      "number": 1955,
      "ats": 1956,
      "ract": 1957,
      "ating": 1958,
      "').": 1959,
      "100": 1960,
      "sup": 1961,
      "Ġrow": 1962,
      "atabase": 1963,
      "Ġfe": 1964,
      "79": 1965,
      "He": 1966,
      "Ġnum": 1967,
      "Cl": 1968,
      "ogle": 1969,
      "Ġcor": 1970,
      "exception": 1971,
      "course": 1972,
      "Ġlib": 1973,
      "util": 1974,
      "variable": 1975,
      "FI": 1976,
      "box": 1977,
      "Ġtemplate": 1978,
      "Ġpri": 1979,
      "Ġcontinue": 1980,
      "CL": 1981,
      "Ġchild": 1982,
      "lank": 1983,
      "stall": 1984,
      "location": 1985,
      "static": 1986,
      "Ġ'.": 1987,
      "[-": 1988,
      "has": 1989,
      "Ġwas": 1990,
      "AME": 1991,
      "uccess": 1992,
      "ĊĠĠĠĠĠĠĠĠĠĠĠĠĠĠĠĠĠĠĠĠĠ": 1993,
      "Ġ'/": 1994,
      "Ġyield": 1995,
      "ries": 1996,
      "off": 1997,
      "rary": 1998,
      "Ġgra": 1999,
      "ick": 2000,
      "Col": 2001,
      "ĠSo": 2002,
      "less": 2003,
      "Ġstatus": 2004,
      "Ġsome": 2005,
      "48": 2006,
      "ARRANT": 2007,
      "Ġtuple": 2008,
      "ĠWARRANT": 2009,
      "58": 2010,
      "Ġsame": 2011,
      "ility": 2012,
      "Ġspecified": 2013,
      "compile": 2014,
      "tails": 2015,
      "uble": 2016,
      "Request": 2017,
      "ĠPython": 2018,
      "last": 2019,
      ".,": 2020,
      "ify": 2021,
      "Ġjson": 2022,
      "')])": 2023,
      "meta": 2024,
      "21": 2025,
      "ffe": 2026,
      "wo": 2027,
      "Config": 2028,
      "ique": 2029,
      "body": 2030,
      "(*": 2031,
      "Ġsoftware": 2032,
      "du": 2033,
      "Ġpage": 2034,
      "Ġfollow": 2035,
      "08": 2036,
      "mt": 2037,
      "gener": 2038,
      "ustom": 2039,
      "Ġallow": 2040,
      "Lo": 2041,
      "Path": 2042,
      "ĊĠĠ": 2043,
      "Ġter": 2044,
      "uture": 2045,
      "river": 2046,
      "ĠYou": 2047,
      "account": 2048,
      "ĊĠĠĠĠĠĠĠĠĠĠĠĠĠĠ": 2049,
      "Ġlogging": 2050,
      "pk": 2051,
      "true": 2052,
      "Ġdest": 2053,
      "MA": 2054,
      "cc": 2055,
      "igh": 2056,
      "ailable": 2057,
      "Ġresults": 2058,
      "Ġbreak": 2059,
      "password": 2060,
      "Ġlast": 2061,
      "expected": 2062,
      "width": 2063,
      "part": 2064,
      "virtual": 2065,
      "Ġthen": 2066,
      "cond": 2067,
      "patch": 2068,
      "Ġfloat": 2069,
      "Ġsign": 2070,
      "Ġ\"%": 2071,
      "ization": 2072,
      "Ġresource": 2073,
      "Ġkwargs": 2074,
      "bit": 2075,
      "td": 2076,
      "verse": 2077,
      "FA": 2078,
      "ĊĠĠĠĠĠĠĠĠĠĠĠĠĠĠĠĠĠĠĠĠĠĠĠĠĠ": 2079,
      "TH": 2080,
      "Item": 2081,
      "Ġdirectory": 2082,
      "datetime": 2083,
      "ush": 2084,
      "umpy": 2085,
      "Ġpos": 2086,
      "parser": 2087,
      "Ġcmd": 2088,
      "CE": 2089,
      "IO": 2090,
      "ublish": 2091,
      "ultip": 2092,
      "atures": 2093,
      "argument": 2094,
      "chema": 2095,
      "elper": 2096,
      "Ġ[\"": 2097,
      "nown": 2098,
      "TY": 2099,
      "IB": 2100,
      "abs": 2101,
      "loc": 2102,
      "req": 2103,
      "ĠFor": 2104,
      "connection": 2105,
      "mon": 2106,
      "resh": 2107,
      "element": 2108,
      "emp": 2109,
      "down": 2110,
      "VER": 2111,
      "Ġprocess": 2112,
      "admin": 2113,
      "76": 2114,
      "Ptr": 2115,
      "ĊĠĠĠĠĠĠĠĠĠĠĠĠĠĠĠĠĠ": 2116,
      "save": 2117,
      "only": 2118,
      "top": 2119,
      "Ġtask": 2120,
      "ticle": 2121,
      ".\"": 2122,
      "email": 2123,
      "site": 2124,
      "Ġ''": 2125,
      "ĊĠĠĠĠĠĠ": 2126,
      "thing": 2127,
      "orage": 2128,
      "abric": 2129,
      "distribu": 2130,
      "now": 2131,
      "ersion": 2132,
      "uch": 2133,
      "attern": 2134,
      "wer": 2135,
      "ĠWe": 2136,
      "mote": 2137,
      "Ġreturned": 2138,
      "headers": 2139,
      "atform": 2140,
      "Dict": 2141,
      "Ġlink": 2142,
      "encode": 2143,
      "perties": 2144,
      "gex": 2145,
      "Ġexec": 2146,
      "ternal": 2147,
      "HT": 2148,
      "older": 2149,
      "Ġdel": 2150,
      "ĊĠĠĠĠĠĠĠĠĠĠĠĠĠĠĠĠĠĠĠĠ": 2151,
      "Ġdtype": 2152,
      "Ġdis": 2153,
      "xx": 2154,
      "Ġbool": 2155,
      "Ġ],": 2156,
      "']],": 2157,
      "aa": 2158,
      "ati": 2159,
      "UP": 2160,
      "FT": 2161,
      "Element": 2162,
      "Ġnext": 2163,
      "src": 2164,
      "ĠPro": 2165,
      "Ġlevel": 2166,
      "40": 2167,
      "remove": 2168,
      "Ġman": 2169,
      "ctionary": 2170,
      "serial": 2171,
      "deo": 2172,
      "Ġqu": 2173,
      "mal": 2174,
      "By": 2175,
      "Call": 2176,
      "cf": 2177,
      "Ġexten": 2178,
      "ready": 2179,
      "graph": 2180,
      "ord": 2181,
      "65": 2182,
      "CharField": 2183,
      "next": 2184,
      "Ġax": 2185,
      "ĠException": 2186,
      "Ġexist": 2187,
      "ride": 2188,
      "]:": 2189,
      "conf": 2190,
      "wh": 2191,
      "31": 2192,
      "sets": 2193,
      "75": 2194,
      "Ġyour": 2195,
      "Ġrandom": 2196,
      "Ġdatetime": 2197,
      "Ġparse": 2198,
      "Ġproject": 2199,
      "rule": 2200,
      "Vi": 2201,
      "Ġsettings": 2202,
      "Ġret": 2203,
      "Out": 2204,
      "ateg": 2205,
      "ution": 2206,
      "xd": 2207,
      "Bo": 2208,
      "Message": 2209,
      "ear": 2210,
      "Ġwri": 2211,
      "lation": 2212,
      "Ġdocument": 2213,
      "okup": 2214,
      "Ġshape": 2215,
      "Ġmark": 2216,
      "Ġses": 2217,
      "Ġwrite": 2218,
      "tests": 2219,
      "bose": 2220,
      "sit": 2221,
      "Ġnon": 2222,
      "State": 2223,
      "exit": 2224,
      "Ġattribute": 2225,
      "GL": 2226,
      "hash": 2227,
      "OL": 2228,
      "(?": 2229,
      "penden": 2230,
      "sa": 2231,
      "handler": 2232,
      "ULT": 2233,
      "ĊĊĠĠĠĠĠĠĠĠĠĠĠĠĠĠĠ": 2234,
      "ĠPar": 2235,
      "Ġab": 2236,
      "\"))": 2237,
      "ular": 2238,
      "cho": 2239,
      "Ġprogram": 2240,
      "ias": 2241,
      "connect": 2242,
      "Ġdevice": 2243,
      "unsigned": 2244,
      "bool": 2245,
      "first": 2246,
      "cer": 2247,
      "Ġload": 2248,
      "Ġsp": 2249,
      "mission": 2250,
      "Ġobjects": 2251,
      "PI": 2252,
      "system": 2253,
      "send": 2254,
      "\"],": 2255,
      "Ġinfo": 2256,
      "Ġlocal": 2257,
      "('\\": 2258,
      "60": 2259,
      "42": 2260,
      "domain": 2261,
      "oper": 2262,
      "Ġ...": 2263,
      "del": 2264,
      "cle": 2265,
      "\",\"": 2266,
      "'},": 2267,
      "gen": 2268,
      "Ġold": 2269,
      "til": 2270,
      "dtype": 2271,
      "quire": 2272,
      "ILITY": 2273,
      "Ġregister": 2274,
      "direct": 2275,
      "AA": 2276,
      "78": 2277,
      "'].": 2278,
      "yp": 2279,
      "à¤": 2280,
      "ĠIS": 2281,
      "zer": 2282,
      "pache": 2283,
      "cket": 2284,
      "ants": 2285,
      "ĊĠĠĠĠĊĠĠĠ": 2286,
      "Ġaddress": 2287,
      "Ġglobal": 2288,
      "Ġav": 2289,
      "ĠSoftware": 2290,
      "Ġsupport": 2291,
      "ink": 2292,
      "pool": 2293,
      "ART": 2294,
      "Ġtests": 2295,
      "ĠTO": 2296,
      "dis": 2297,
      ")):": 2298,
      "255": 2299,
      "SS": 2300,
      "column": 2301,
      "uri": 2302,
      "derr": 2303,
      "Ġlimit": 2304,
      "Pack": 2305,
      "Ġorig": 2306,
      "null": 2307,
      "io": 2308,
      "Ġvoid": 2309,
      "ves": 2310,
      "aster": 2311,
      "Ġge": 2312,
      "`.": 2313,
      "environ": 2314,
      "ported": 2315,
      "sis": 2316,
      "vision": 2317,
      "Ġ),": 2318,
      "fs": 2319,
      "Size": 2320,
      "////////////////": 2321,
      "45": 2322,
      "Ġheaders": 2323,
      "fn": 2324,
      "lower": 2325,
      "color": 2326,
      "fl": 2327,
      "QU": 2328,
      "Ġerr": 2329,
      "common": 2330,
      "Ġoff": 2331,
      "Ġrule": 2332,
      "68": 2333,
      "ĠTHE": 2334,
      "ates": 2335,
      "('/": 2336,
      "Ġthere": 2337,
      "Ġcount": 2338,
      "NAME": 2339,
      "stack": 2340,
      "Ġmap": 2341,
      "Ġfind": 2342,
      "metadata": 2343,
      "'''": 2344,
      "Ġtensor": 2345,
      "umns": 2346,
      "tx": 2347,
      "Ġhere": 2348,
      "\"):": 2349,
      "tree": 2350,
      "Ġsession": 2351,
      "pc": 2352,
      "Count": 2353,
      "Info": 2354,
      "random": 2355,
      "Ġ>=": 2356,
      "cale": 2357,
      "ometry": 2358,
      "stamp": 2359,
      "Ġ,": 2360,
      "ingle": 2361,
      "tainer": 2362,
      "round": 2363,
      "Response": 2364,
      "]],": 2365,
      "Ġpython": 2366,
      "etch": 2367,
      "Ġarguments": 2368,
      "rapper": 2369,
      "ices": 2370,
      "Qu": 2371,
      "ĠGet": 2372,
      "entry": 2373,
      "dev": 2374,
      "ceiv": 2375,
      "Ġpoint": 2376,
      "Module": 2377,
      "ĊĊĊĠĠĠ": 2378,
      "stop": 2379,
      "ial": 2380,
      "ĠFOR": 2381,
      "Ġwhere": 2382,
      "licenses": 2383,
      "show": 2384,
      "Ġlines": 2385,
      "Ġsk": 2386,
      "Ġinclude": 2387,
      "Ġtemp": 2388,
      "ĠSM": 2389,
      "Event": 2390,
      "dia": 2391,
      "vo": 2392,
      "rs": 2393,
      "bytes": 2394,
      "Man": 2395,
      "Ġbody": 2396,
      "Ġentry": 2397,
      "Pre": 2398,
      "Ġits": 2399,
      "Ġlambda": 2400,
      "ĠAND": 2401,
      "Ġextra": 2402,
      "Ġprefix": 2403,
      "Comp": 2404,
      "volume": 2405,
      "ector": 2406,
      "related": 2407,
      "fin": 2408,
      "vate": 2409,
      "Ġafter": 2410,
      "ha": 2411,
      "fer": 2412,
      "uster": 2413,
      "Ġcom": 2414,
      "nodes": 2415,
      "select": 2416,
      "47": 2417,
      "Ġstd": 2418,
      "Ġthan": 2419,
      "Ġ{\"": 2420,
      "mpl": 2421,
      "All": 2422,
      "job": 2423,
      "txt": 2424,
      "can": 2425,
      "85": 2426,
      "required": 2427,
      "ĠWITHOUT": 2428,
      "Ġhandle": 2429,
      "KE": 2430,
      "RL": 2431,
      "ĊĠĠĠĠĠĠĠĠĠĠĠĠĠĠĠĠĠĠĠĠĠĠ": 2432,
      "dentifi": 2433,
      "ĠType": 2434,
      "Ġservice": 2435,
      "Ġdetails": 2436,
      "Tra": 2437,
      "Ns": 2438,
      "Al": 2439,
      "{}": 2440,
      "side": 2441,
      "act": 2442,
      "future": 2443,
      "exists": 2444,
      "Log": 2445,
      "Ġmain": 2446,
      ")/": 2447,
      "Group": 2448,
      "Ġfail": 2449,
      "Ġopt": 2450,
      "Ġright": 2451,
      "ctions": 2452,
      "ish": 2453,
      "Ġact": 2454,
      "Ġview": 2455,
      "Ġimple": 2456,
      "Ġfilter": 2457,
      "=%": 2458,
      "]))": 2459,
      "startswith": 2460,
      "Handler": 2461,
      "Ġthread": 2462,
      "Ġclo": 2463,
      "sen": 2464,
      "Ġlate": 2465,
      "46": 2466,
      "Ġcr": 2467,
      "Ġcho": 2468,
      "flags": 2469,
      "ba": 2470,
      "utton": 2471,
      "EXT": 2472,
      "username": 2473,
      "methods": 2474,
      "Ġ'-": 2475,
      "ĠĠĠĠĠĠĠĠĠĠĠĠĠĠĠĠĠĠĠĠĠĠĠĠĠĠĠĠĠĠĠĠ": 2476,
      "ABILITY": 2477,
      "Ġimplied": 2478,
      "handle": 2479,
      "Net": 2480,
      "53": 2481,
      "sl": 2482,
      "XX": 2483,
      "asic": 2484,
      "served": 2485,
      "================================": 2486,
      "style": 2487,
      "Ġspecific": 2488,
      "changed": 2489,
      "ĊĠĠĠĠĠĠĠĠĠĠĠĠĠĠĠĠĠĠĠĠĠĠĠĠĠĠĠĠ": 2490,
      "package": 2491,
      "ights": 2492,
      "An": 2493,
      "ĠSet": 2494,
      "auto": 2495,
      "ultiple": 2496,
      "cen": 2497,
      "Ġshow": 2498,
      "Create": 2499,
      "blank": 2500,
      "bb": 2501,
      "author": 2502,
      "wit": 2503,
      "CK": 2504,
      "Ġpassword": 2505,
      "Date": 2506,
      "LIC": 2507,
      "Ġ..": 2508,
      "mented": 2509,
      "Device": 2510,
      "ĊĠĠĠĠĠĠĠĠĠĠĠĠĠĠĠĠĠĠĠĠĠĠĠĠĠĠĠĠĠĠĠĠĠĠĠ": 2511,
      "Ġlogger": 2512,
      "Ġ'_": 2513,
      "PRO": 2514,
      "pol": 2515,
      "ĠSMALL": 2516,
      "Ġbin": 2517,
      "Ġcourse": 2518,
      "Ġgetattr": 2519,
      "web": 2520,
      "ux": 2521,
      "]),": 2522,
      "her": 2523,
      "VE": 2524,
      "ceived": 2525,
      "execute": 2526,
      "rag": 2527,
      "52": 2528,
      "Ġreturns": 2529,
      "Ġmat": 2530,
      "_(": 2531,
      "From": 2532,
      "UB": 2533,
      "96": 2534,
      "><": 2535,
      "Ġinitial": 2536,
      "tools": 2537,
      "Ġtitle": 2538,
      "Ġindi": 2539,
      "Run": 2540,
      "ĊĊĠĠĠĠĠ": 2541,
      "nap": 2542,
      "Class": 2543,
      "Ġbefore": 2544,
      "']['": 2545,
      "case": 2546,
      "Ġstream": 2547,
      "alog": 2548,
      "Ġtrue": 2549,
      "errors": 2550,
      "als": 2551,
      "Ġerrors": 2552,
      "Le": 2553,
      "missions": 2554,
      "alid": 2555,
      "Ġinformation": 2556,
      "Ġconn": 2557,
      "product": 2558,
      "Ġpackage": 2559,
      "Ġ'__": 2560,
      "({": 2561,
      "Ġfunc": 2562,
      "IES": 2563,
      "82": 2564,
      "']:": 2565,
      "TO": 2566,
      "Header": 2567,
      "TypeId": 2568,
      "Ġfollowing": 2569,
      "ker": 2570,
      "CC": 2571,
      "mory": 2572,
      "wait": 2573,
      "ĊĠĠĠĠĠĠĠĠĠĠĠĠĠĠĠĠĠĠĠĠĠĠĠĠĠĠ": 2574,
      "Ġalready": 2575,
      "97": 2576,
      "uite": 2577,
      "cies": 2578,
      "eval": 2579,
      "uuid": 2580,
      "Ġcache": 2581,
      "Ġlength": 2582,
      "Ġfin": 2583,
      ",'": 2584,
      "Do": 2585,
      "Des": 2586,
      "gr": 2587,
      "very": 2588,
      "Ġenv": 2589,
      "except": 2590,
      "rt": 2591,
      "fd": 2592,
      "timeout": 2593,
      "ATION": 2594,
      "---": 2595,
      "ORT": 2596,
      "Ġalso": 2597,
      "gine": 2598,
      "Ġauto": 2599,
      "Ġdictionary": 2600,
      "dep": 2601,
      "Option": 2602,
      "ditional": 2603,
      "results": 2604,
      "wise": 2605,
      "ĠKey": 2606,
      "Ġob": 2607,
      "assi": 2608,
      "manager": 2609,
      "Sub": 2610,
      "vm": 2611,
      "Ġsta": 2612,
      "include": 2613,
      "dest": 2614,
      "Ġfull": 2615,
      "ensor": 2616,
      "ABLE": 2617,
      "aly": 2618,
      "zone": 2619,
      "Inter": 2620,
      "Ġgo": 2621,
      "ĠAnsible": 2622,
      "Per": 2623,
      "ĠString": 2624,
      "proto": 2625,
      "mer": 2626,
      "arnings": 2627,
      "čĊĠĠĠĠĠĠĠĠĠĠĠĠĠĠĠ": 2628,
      "mask": 2629,
      "Ġfabric": 2630,
      "Ġhash": 2631,
      "URL": 2632,
      "Ġparameters": 2633,
      "groups": 2634,
      "94": 2635,
      "Ġho": 2636,
      "Ġlanguage": 2637,
      "space": 2638,
      "UM": 2639,
      "App": 2640,
      "ron": 2641,
      "APIT": 2642,
      "ĠFound": 2643,
      "Ġencoding": 2644,
      "scope": 2645,
      "Ġign": 2646,
      "usr": 2647,
      "Ġreq": 2648,
      "Ġunicode": 2649,
      "Ġ'<": 2650,
      "cause": 2651,
      "ical": 2652,
      "Ġtimeout": 2653,
      "ĠAdd": 2654,
      "ide": 2655,
      "Ġsystem": 2656,
      "Ġdep": 2657,
      "83": 2658,
      ".')": 2659,
      "ason": 2660,
      "Ġass": 2661,
      "Sh": 2662,
      "tk": 2663,
      "mi": 2664,
      "')],": 2665,
      "ERR": 2666,
      "cimal": 2667,
      "Ġ\"_": 2668,
      "APITAL": 2669,
      "ĠCheck": 2670,
      "thread": 2671,
      "Ġ$": 2672,
      "LI": 2673,
      "Integer": 2674,
      "rop": 2675,
      "win": 2676,
      "]]": 2677,
      "ĠCAPITAL": 2678,
      "MO": 2679,
      "Ġnumpy": 2680,
      "Index": 2681,
      "active": 2682,
      "register": 2683,
      "SI": 2684,
      ".\")": 2685,
      "dist": 2686,
      "=(": 2687,
      "Ġhasattr": 2688,
      ":%": 2689,
      "Ġsample": 2690,
      "oding": 2691,
      "oreign": 2692,
      "coder": 2693,
      "example": 2694,
      "Ġ<=": 2695,
      "-\\": 2696,
      "addr": 2697,
      "Default": 2698,
      "uter": 2699,
      "pr": 2700,
      "Ġempty": 2701,
      "Ġstruct": 2702,
      "stdout": 2703,
      "termin": 2704,
      "mbol": 2705,
      "book": 2706,
      "FOR": 2707,
      "decode": 2708,
      "NS": 2709,
      "90": 2710,
      "TYPE": 2711,
      "imum": 2712,
      "Py": 2713,
      "Content": 2714,
      "nel": 2715,
      "Ġoptional": 2716,
      "Ġfl": 2717,
      "plugin": 2718,
      "Th": 2719,
      "95": 2720,
      "gg": 2721,
      "repr": 2722,
      "let": 2723,
      "dump": 2724,
      "Ġparameter": 2725,
      "Packet": 2726,
      "Ġinst": 2727,
      "ĊĠĠĠĠĠĠĠĠĊĠĠĠĠĠĠĠ": 2728,
      "Ġvar": 2729,
      "ini": 2730,
      "comple": 2731,
      "access": 2732,
      "]['": 2733,
      "lambda": 2734,
      "Ġcharac": 2735,
      ");": 2736,
      "Ġcreated": 2737,
      "buffer": 2738,
      "Ġus": 2739,
      "Ġiter": 2740,
      "Ġprovided": 2741,
      "ĊĊĉ": 2742,
      "offset": 2743,
      "assed": 2744,
      "prot": 2745,
      "Ġtop": 2746,
      "initial": 2747,
      "Ġxml": 2748,
      "PL": 2749,
      "ators": 2750,
      "ATA": 2751,
      "ĠFoundation": 2752,
      "ng": 2753,
      "Ġsearch": 2754,
      "Ġeven": 2755,
      "af": 2756,
      "Ġbeen": 2757,
      "setup": 2758,
      "skip": 2759,
      "70": 2760,
      "rec": 2761,
      "Ġids": 2762,
      "Ġcolumn": 2763,
      "cli": 2764,
      "This": 2765,
      "63": 2766,
      "Ad": 2767,
      "View": 2768,
      "EM": 2769,
      "Ġdiffe": 2770,
      "Ġap": 2771,
      "sv": 2772,
      "Variable": 2773,
      "Ġutf": 2774,
      "channel": 2775,
      "conds": 2776,
      "Ġrecord": 2777,
      "place": 2778,
      "ĠIt": 2779,
      "Ġpublish": 2780,
      "ait": 2781,
      "shot": 2782,
      "Ġbytes": 2783,
      "Ġnetwork": 2784,
      "control": 2785,
      "most": 2786,
      "Ġframe": 2787,
      ")[": 2788,
      "62": 2789,
      "ĠCreate": 2790,
      "tmp": 2791,
      "section": 2792,
      "Ġdon": 2793,
      "FAULT": 2794,
      ".*": 2795,
      "unittest": 2796,
      "Ġcalled": 2797,
      "plot": 2798,
      "ĠCh": 2799,
      "olute": 2800,
      "(-": 2801,
      "play": 2802,
      "Ġcoding": 2803,
      "exc": 2804,
      "PAT": 2805,
      "Callback": 2806,
      "]+": 2807,
      "Ġavailable": 2808,
      "long": 2809,
      "Ġ&',": 2810,
      "Ġmodify": 2811,
      "ĠName": 2812,
      "Ġremove": 2813,
      "andard": 2814,
      "entic": 2815,
      "ĠWh": 2816,
      "Auth": 2817,
      "Ġ%(": 2818,
      "72": 2819,
      "lected": 2820,
      "Form": 2821,
      "As": 2822,
      "IONS": 2823,
      "43": 2824,
      "Dis": 2825,
      "NO": 2826,
      "roll": 2827,
      "contrib": 2828,
      "ef": 2829,
      "IGHT": 2830,
      "Ġcomple": 2831,
      "ĠNot": 2832,
      "Ġtf": 2833,
      "train": 2834,
      "81": 2835,
      "else": 2836,
      "Ġcre": 2837,
      "Ġsocket": 2838,
      "Ġlike": 2839,
      "%(": 2840,
      "dentifier": 2841,
      "Parser": 2842,
      ").__": 2843,
      "Or": 2844,
      "ĠNOT": 2845,
      "DB": 2846,
      "RA": 2847,
      "Str": 2848,
      "Ġsingle": 2849,
      "Ġ'--": 2850,
      "ĠURL": 2851,
      "tep": 2852,
      "Ġabs": 2853,
      "ĠAt": 2854,
      "ince": 2855,
      "HTTP": 2856,
      "ENSE": 2857,
      "oken": 2858,
      "https": 2859,
      "Ġvariables": 2860,
      "full": 2861,
      ")\\": 2862,
      "Ġcommon": 2863,
      "TEST": 2864,
      "non": 2865,
      "cd": 2866,
      "Ġfree": 2867,
      "ĠFree": 2868,
      "51": 2869,
      "ĠID": 2870,
      "eb": 2871,
      "Reg": 2872,
      "ob": 2873,
      "cap": 2874,
      "uffix": 2875,
      "ĠUser": 2876,
      "Ġtwo": 2877,
      "~~~~": 2878,
      "Ġaccess": 2879,
      "extend": 2880,
      "Ġdomain": 2881,
      "Ġunittest": 2882,
      "Ġkeys": 2883,
      "Ġscript": 2884,
      "ways": 2885,
      "login": 2886,
      "okie": 2887,
      "classes": 2888,
      "Result": 2889,
      "CP": 2890,
      "Ref": 2891,
      "ĊĠĠĠĠĠĠĠĠĠĠĠĠĠĠĠĠĠĠĠĠĠĠĠĠĠĠĠĠĠ": 2892,
      "Ġexample": 2893,
      "cb": 2894,
      "Ġterms": 2895,
      "Ġchanged": 2896,
      "Ġconfiguration": 2897,
      "73": 2898,
      "ared": 2899,
      "ĠAll": 2900,
      "EL": 2901,
      "tab": 2902,
      "Ġren": 2903,
      "gor": 2904,
      "98": 2905,
      "tim": 2906,
      "Ġbet": 2907,
      "ored": 2908,
      "Ġlocation": 2909,
      "BU": 2910,
      "extra": 2911,
      "batch": 2912,
      "profile": 2913,
      "pha": 2914,
      "press": 2915,
      "GG": 2916,
      "Ġdist": 2917,
      "display": 2918,
      "INT": 2919,
      "vironment": 2920,
      "logger": 2921,
      "vider": 2922,
      "total": 2923,
      ")\"": 2924,
      "Tests": 2925,
      "step": 2926,
      "Factory": 2927,
      "Ġsrc": 2928,
      "Ġdisplay": 2929,
      "like": 2930,
      "cast": 2931,
      "ics": 2932,
      "Ġaccount": 2933,
      "Ġwant": 2934,
      "Ġdir": 2935,
      "vars": 2936,
      "Ġsa": 2937,
      ":]": 2938,
      "Imple": 2939,
      "QL": 2940,
      "(['": 2941,
      "92": 2942,
      "Ġtypes": 2943,
      "CR": 2944,
      "Ġlater": 2945,
      "cent": 2946,
      "assertEquals": 2947,
      "Ġ100": 2948,
      "ift": 2949,
      "linen": 2950,
      "Ġjust": 2951,
      "Ġbecause": 2952,
      "41": 2953,
      "Ġrepresent": 2954,
      "Ġstatic": 2955,
      "Map": 2956,
      "></": 2957,
      "čĊčĊĠĠĠ": 2958,
      "Output": 2959,
      "tuple": 2960,
      "(\\": 2961,
      "AGE": 2962,
      "Ġpost": 2963,
      "utable": 2964,
      "ranch": 2965,
      "global": 2966,
      "tera": 2967,
      "=['": 2968,
      "tags": 2969,
      "GET": 2970,
      "vious": 2971,
      "used": 2972,
      "Ġnull": 2973,
      "Ġitems": 2974,
      "unicode": 2975,
      "61": 2976,
      "day": 2977,
      "les": 2978,
      "HO": 2979,
      "Source": 2980,
      "orig": 2981,
      "WAR": 2982,
      "ling": 2983,
      "Ġref": 2984,
      "Ġthey": 2985,
      "Ġapi": 2986,
      "attributes": 2987,
      "Manager": 2988,
      "wd": 2989,
      "ĠWARRANTIES": 2990,
      "encoding": 2991,
      "opt": 2992,
      "head": 2993,
      "oreignKey": 2994,
      "dered": 2995,
      "idx": 2996,
      "Ġuseful": 2997,
      "Context": 2998,
      "čĊč": 2999,
      "Ġinteger": 3000,
      "Ġ--------": 3001,
      "Ġmy": 3002,
      "fc": 3003,
      "Ġattributes": 3004,
      "End": 3005,
      "dio": 3006,
      "With": 3007,
      "binary": 3008,
      "sql": 3009,
      "':{'": 3010,
      "dle": 3011,
      "Ġserial": 3012,
      "sitive": 3013,
      "tered": 3014,
      "div": 3015,
      "Ġhandler": 3016,
      "speci": 3017,
      "bot": 3018,
      "cry": 3019,
      "argv": 3020,
      "cts": 3021,
      "DIR": 3022,
      "napshot": 3023,
      "tils": 3024,
      "NESS": 3025,
      "lative": 3026,
      "STR": 3027,
      "diff": 3028,
      "multi": 3029,
      "ilder": 3030,
      "Ġemail": 3031,
      "Ġpassed": 3032,
      "ĠArgs": 3033,
      "Code": 3034,
      "Ġcontaining": 3035,
      "ACT": 3036,
      "lice": 3037,
      "ULAR": 3038,
      "left": 3039,
      "Loc": 3040,
      "Client": 3041,
      "va": 3042,
      "uff": 3043,
      "ĊĠĠĠĠĠĠĠĠĠĠĠĠĠĠĠĠĠĠĠĠĠĠĠĠĠĠĠĠĠĠ": 3044,
      "ystem": 3045,
      "ged": 3046,
      "Lay": 3047,
      "Checker": 3048,
      "Line": 3049,
      "Ġdatabase": 3050,
      "emplate": 3051,
      "Ġta": 3052,
      "MS": 3053,
      "stead": 3054,
      "Ġfalse": 3055,
      "iddle": 3056,
      ",-": 3057,
      "callback": 3058,
      "record": 3059,
      "################################################################": 3060,
      "ITNESS": 3061,
      "Ġthem": 3062,
      "Ġnow": 3063,
      "POSE": 3064,
      "zip": 3065,
      "Ġraw": 3066,
      "ERCH": 3067,
      "Ġ</": 3068,
      "ERCHANT": 3069,
      "report": 3070,
      "'})": 3071,
      ">\\": 3072,
      "Ġ[])": 3073,
      "aded": 3074,
      "istr": 3075,
      "ĠPART": 3076,
      "tach": 3077,
      "KEY": 3078,
      "ward": 3079,
      "ugh": 3080,
      "hether": 3081,
      "chedule": 3082,
      "stderr": 3083,
      "ĠPUR": 3084,
      "Ġresp": 3085,
      "Ġreceived": 3086,
      "Ġ\"\"": 3087,
      "mac": 3088,
      "Ġsum": 3089,
      "driver": 3090,
      "ĠNo": 3091,
      "ĠFITNESS": 3092,
      "real": 3093,
      "coun": 3094,
      "oci": 3095,
      "****************": 3096,
      "limit": 3097,
      "google": 3098,
      "ACK": 3099,
      "OS": 3100,
      "ĠHTTP": 3101,
      "Ġmethods": 3102,
      "CONF": 3103,
      "ĠPURPOSE": 3104,
      "Ġdebug": 3105,
      "ICULAR": 3106,
      "ĠZ": 3107,
      "__,": 3108,
      "ween": 3109,
      "Command": 3110,
      "witch": 3111,
      "modules": 3112,
      "lex": 3113,
      "Ġaxis": 3114,
      "ĠPARTICULAR": 3115,
      "scriptor": 3116,
      "mentation": 3117,
      "clean": 3118,
      "cul": 3119,
      "Server": 3120,
      "ĠMERCHANT": 3121,
      "vs": 3122,
      "Ġtree": 3123,
      "position": 3124,
      "yload": 3125,
      "={": 3126,
      "axis": 3127,
      "tensor": 3128,
      "93": 3129,
      ".',": 3130,
      "_,": 3131,
      ";\":": 3132,
      "/>": 3133,
      ".\\": 3134,
      "\"])": 3135,
      "delta": 3136,
      "licit": 3137,
      "ditions": 3138,
      "Gener": 3139,
      "Ġinstead": 3140,
      "Ġtotal": 3141,
      "Block": 3142,
      "FL": 3143,
      "Ġ12": 3144,
      "Ġdelete": 3145,
      "ĠTypeError": 3146,
      "ĊĠĠĠĠĠĠĠĠĠĠĠĠĠĠĠĠĠĠĠĠĠĠĠĠĠĠĠĠĠĠĠĠĠĠĠĠĠĠĠ": 3147,
      "words": 3148,
      "/%": 3149,
      "pid": 3150,
      "tom": 3151,
      "Ġuint": 3152,
      "cated": 3153,
      "ntax": 3154,
      "ination": 3155,
      "raint": 3156,
      "double": 3157,
      "Ġspec": 3158,
      "known": 3159,
      "Frame": 3160,
      "ĠImport": 3161,
      "Start": 3162,
      "ually": 3163,
      "Ġcolor": 3164,
      "pu": 3165,
      "Len": 3166,
      "Service": 3167,
      "#!": 3168,
      "ĠMERCHANTABILITY": 3169,
      "ERROR": 3170,
      ")'": 3171,
      "71": 3172,
      "component": 3173,
      "install": 3174,
      "abc": 3175,
      "insert": 3176,
      "DS": 3177,
      "Ġexc": 3178,
      "features": 3179,
      "Ġalong": 3180,
      "Ġdoesn": 3181,
      "Ġsuccess": 3182,
      "fake": 3183,
      "Simple": 3184,
      "policy": 3185,
      "Table": 3186,
      "git": 3187,
      "Trans": 3188,
      "entries": 3189,
      "ForeignKey": 3190,
      "sort": 3191,
      "IND": 3192,
      "Ġ16": 3193,
      "ĠMe": 3194,
      "bility": 3195,
      ")',": 3196,
      "invalid": 3197,
      "ends": 3198,
      "gest": 3199,
      "stats": 3200,
      "Ġmis": 3201,
      "rough": 3202,
      "IGN": 3203,
      "VAL": 3204,
      "Input": 3205,
      "indows": 3206,
      "ĠOption": 3207,
      "brow": 3208,
      "pendencies": 3209,
      "uk": 3210,
      "Ġcorrect": 3211,
      "\"\\": 3212,
      "Ġcal": 3213,
      "parameters": 3214,
      "attribute": 3215,
      "olean": 3216,
      "Ġinterface": 3217,
      "MM": 3218,
      "ending": 3219,
      "dirs": 3220,
      "release": 3221,
      "Ġsend": 3222,
      "children": 3223,
      "Ġdown": 3224,
      "Connection": 3225,
      "annot": 3226,
      "Query": 3227,
      "Ġtensorflow": 3228,
      "Ġtri": 3229,
      "FO": 3230,
      "Ġnamespace": 3231,
      "ĠOpen": 3232,
      "Ġcallback": 3233,
      "SH": 3234,
      "unique": 3235,
      "imp": 3236,
      "gate": 3237,
      "Ġsure": 3238,
      "see": 3239,
      "ĠSe": 3240,
      "Int": 3241,
      "Ġansible": 3242,
      "PATH": 3243,
      "Instance": 3244,
      "Ġcollection": 3245,
      "platform": 3246,
      "Ġdefined": 3247,
      "unit": 3248,
      "tf": 3249,
      "keep": 3250,
      "namespace": 3251,
      "({'": 3252,
      "sure": 3253,
      "ĠTODO": 3254,
      "raph": 3255,
      "dential": 3256,
      "desc": 3257,
      "ik": 3258,
      "Number": 3259,
      "Ġ'',": 3260,
      "ĠAPI": 3261,
      "apping": 3262,
      "CA": 3263,
      "Token": 3264,
      "ĠDE": 3265,
      "interface": 3266,
      "Ġpublished": 3267,
      "Ġoffset": 3268,
      "fit": 3269,
      "added": 3270,
      "sample": 3271,
      "Ġsetup": 3272,
      "000000": 3273,
      "ases": 3274,
      "sport": 3275,
      "Page": 3276,
      "ĠInc": 3277,
      "Ġipv": 3278,
      "SER": 3279,
      "proxy": 3280,
      "war": 3281,
      "properties": 3282,
      "lector": 3283,
      "Read": 3284,
      "Ġflags": 3285,
      "Ġ\"/": 3286,
      "dot": 3287,
      "attrs": 3288,
      "br": 3289,
      "Ġattrs": 3290,
      "opts": 3291,
      "ret": 3292,
      "Ġnormal": 3293,
      "tical": 3294,
      "-%": 3295,
      "Stream": 3296,
      "ured": 3297,
      "CS": 3298,
      "Buffer": 3299,
      "sm": 3300,
      "Ġvolume": 3301,
      "normal": 3302,
      "ĊĠĠĠĠĠĠĠĠĠĠĠĠĠĠĠĠĠĠĠĠĠĠĠĠĠĠĠĠĠĠĠĠĠ": 3303,
      "Ġcontrol": 3304,
      "Ġflag": 3305,
      "allow": 3306,
      "Ġtrace": 3307,
      "gt": 3308,
      "sue": 3309,
      "Action": 3310,
      "PR": 3311,
      "ello": 3312,
      "gress": 3313,
      "On": 3314,
      "Iter": 3315,
      "way": 3316,
      "pb": 3317,
      "metri": 3318,
      "ship": 3319,
      "iod": 3320,
      "sec": 3321,
      "ĠĠĠĠĠĠĠĠĠĠĠ": 3322,
      "ummy": 3323,
      "Ġproperty": 3324,
      "And": 3325,
      "Ġstrings": 3326,
      "primary": 3327,
      "91": 3328,
      "Ġextension": 3329,
      "Ġweb": 3330,
      "cluded": 3331,
      "Ġobtain": 3332,
      "height": 3333,
      "assertFalse": 3334,
      "Ġbuffer": 3335,
      "Ġproduct": 3336,
      "Clo": 3337,
      "tify": 3338,
      "Widget": 3339,
      "quires": 3340,
      "Ġmetadata": 3341,
      ")*": 3342,
      "Ġgraph": 3343,
      "olve": 3344,
      "bl": 3345,
      "Mock": 3346,
      "olution": 3347,
      "tition": 3348,
      "comment": 3349,
      "Ġreplace": 3350,
      "forms": 3351,
      "render": 3352,
      "Version": 3353,
      "Ġsave": 3354,
      "Ġsorted": 3355,
      "samples": 3356,
      "compute": 3357,
      "Auto": 3358,
      "OF": 3359,
      "curity": 3360,
      "Ġcer": 3361,
      "ose": 3362,
      "Ġreal": 3363,
      "Invalid": 3364,
      "Ġdifferent": 3365,
      "Ġbinary": 3366,
      "Ġti": 3367,
      "__)": 3368,
      "rel": 3369,
      "ttp": 3370,
      "Ġpatch": 3371,
      "Ġskip": 3372,
      "ueue": 3373,
      "loy": 3374,
      "ube": 3375,
      "Ġverbose": 3376,
      "SON": 3377,
      "ĠRun": 3378,
      "Ġoriginal": 3379,
      "Ġnodes": 3380,
      "#!/": 3381,
      "Ġbetween": 3382,
      "UD": 3383,
      "Ġip": 3384,
      "cat": 3385,
      "istry": 3386,
      "ja": 3387,
      "Ġ20": 3388,
      "ges": 3389,
      "ĠNote": 3390,
      "Sta": 3391,
      "wri": 3392,
      "ValueError": 3393,
      "ĠVersion": 3394,
      "bove": 3395,
      "Meta": 3396,
      "score": 3397,
      "sive": 3398,
      "Mac": 3399,
      "Ġgeometry": 3400,
      "pattern": 3401,
      "duce": 3402,
      "year": 3403,
      "Ġmeta": 3404,
      "Ġfailed": 3405,
      "columns": 3406,
      "Returns": 3407,
      "ĠWARRANTY": 3408,
      "bind": 3409,
      "ntry": 3410,
      "Ġexisting": 3411,
      "ĠLO": 3412,
      "Ġmod": 3413,
      "Ġsequence": 3414,
      "Ġchoices": 3415,
      "Ġim": 3416,
      "repo": 3417,
      "blem": 3418,
      "velo": 3419,
      "Ġsection": 3420,
      "Ġposition": 3421,
      "loader": 3422,
      "Ġfunctions": 3423,
      "des": 3424,
      "Build": 3425,
      "ixed": 3426,
      ":\\": 3427,
      "Point": 3428,
      "Ġwar": 3429,
      "()[": 3430,
      "messages": 3431,
      "Ġabove": 3432,
      "aries": 3433,
      "Ġusername": 3434,
      "extension": 3435,
      "assertIs": 3436,
      "help": 3437,
      "points": 3438,
      "Ġoperation": 3439,
      "widget": 3440,
      "reen": 3441,
      "math": 3442,
      "Ġpermissions": 3443,
      "ily": 3444,
      "Ġ>',": 3445,
      "trace": 3446,
      "ĠEn": 3447,
      "AY": 3448,
      "Ġstyle": 3449,
      "socket": 3450,
      "Ġpresent": 3451,
      "HER": 3452,
      "cheme": 3453,
      "tificate": 3454,
      "public": 3455,
      "Fe": 3456,
      "ategory": 3457,
      "iltin": 3458,
      "oto": 3459,
      "(__": 3460,
      "Ġ):": 3461,
      "Ġwidth": 3462,
      "weight": 3463,
      "Ġstack": 3464,
      "IME": 3465,
      "Of": 3466,
      "scale": 3467,
      "Ġeval": 3468,
      "lineno": 3469,
      "distribute": 3470,
      "\").": 3471,
      "DEFAULT": 3472,
      "Ġmath": 3473,
      "Ġ[[": 3474,
      "dirname": 3475,
      "Hash": 3476,
      "fication": 3477,
      "ero": 3478,
      "many": 3479,
      "!!": 3480,
      "Function": 3481,
      "Ġzip": 3482,
      "Ġadded": 3483,
      "Format": 3484,
      "Ġmon": 3485,
      "Ġsimple": 3486,
      "esca": 3487,
      "'][": 3488,
      "safe": 3489,
      "Valid": 3490,
      "Image": 3491,
      "ĠPer": 3492,
      "Child": 3493,
      "storage": 3494,
      "Ġexists": 3495,
      "leted": 3496,
      "gorith": 3497,
      "Process": 3498,
      "Ġsecond": 3499,
      "Implemented": 3500,
      "wn": 3501,
      "validate": 3502,
      "Ġactual": 3503,
      "Ġselect": 3504,
      "ested": 3505,
      "ĠDO": 3506,
      "Ġdisable": 3507,
      "('%": 3508,
      "Ġcontains": 3509,
      "Ġmulti": 3510,
      "udent": 3511,
      "labels": 3512,
      "quote": 3513,
      "Down": 3514,
      "ĠĠĠĠĠĠĠĠĠ": 3515,
      "FORM": 3516,
      "Ġhtml": 3517,
      "ilter": 3518,
      "sw": 3519,
      "Ġthese": 3520,
      "ĊĠĠĠĠĠĠĠĠĠĠĠĠĠĠĠĠĠĠĠĠĠĠĠĠĠĠĠĠĠĠĠĠĠĠ": 3521,
      "Ġbatch": 3522,
      "ĠBase": 3523,
      ">'": 3524,
      "stract": 3525,
      "sq": 3526,
      "called": 3527,
      "gl": 3528,
      "Ġtmp": 3529,
      ".'": 3530,
      "ĠIP": 3531,
      "Box": 3532,
      "categ": 3533,
      "Write": 3534,
      "fetch": 3535,
      "raises": 3536,
      "Ġcustom": 3537,
      "oolean": 3538,
      "moved": 3539,
      "na": 3540,
      "cpu": 3541,
      "Ġforce": 3542,
      "commit": 3543,
      "Ġalways": 3544,
      "ĠImportError": 3545,
      "Ġ\"'": 3546,
      "\");": 3547,
      "tice": 3548,
      "serialize": 3549,
      "Ġgenerate": 3550,
      "iddleware": 3551,
      "ession": 3552,
      "CI": 3553,
      "document": 3554,
      "Ġlibrary": 3555,
      "bound": 3556,
      "tool": 3557,
      "indi": 3558,
      "`,": 3559,
      "Ġtrain": 3560,
      "gh": 3561,
      "ĠSO": 3562,
      "ĠGL": 3563,
      "idden": 3564,
      "INE": 3565,
      "iler": 3566,
      "Dir": 3567,
      "Ġ-.": 3568,
      "ws": 3569,
      "\"}": 3570,
      "Serial": 3571,
      "dim": 3572,
      "sted": 3573,
      "Ġapplic": 3574,
      "Ġwriting": 3575,
      "board": 3576,
      "hy": 3577,
      "application": 3578,
      "SION": 3579,
      "ank": 3580,
      "xff": 3581,
      "ECT": 3582,
      "dt": 3583,
      "clear": 3584,
      "Iterator": 3585,
      "Ġ}}": 3586,
      "lip": 3587,
      "scape": 3588,
      "Ġplugin": 3589,
      "ĠAuth": 3590,
      "ĠRes": 3591,
      "none": 3592,
      "OK": 3593,
      "med": 3594,
      "Ġabout": 3595,
      "js": 3596,
      "SET": 3597,
      "Ġwarnings": 3598,
      "ĠComp": 3599,
      "container": 3600,
      "Found": 3601,
      "Ġleft": 3602,
      "urls": 3603,
      "Ġredistribute": 3604,
      "zy": 3605,
      "----------------------------------------------------------------": 3606,
      "00000000": 3607,
      "Ġmarker": 3608,
      "eff": 3609,
      "seq": 3610,
      "ĠPRO": 3611,
      "short": 3612,
      "ĠsetUp": 3613,
      "leep": 3614,
      "inst": 3615,
      "ability": 3616,
      "ins": 3617,
      "Ġwait": 3618,
      "directory": 3619,
      "alias": 3620,
      "ire": 3621,
      "Ġreport": 3622,
      "Ġchannel": 3623,
      "ae": 3624,
      "ĠPO": 3625,
      "ĠCol": 3626,
      "collection": 3627,
      "Ġlabels": 3628,
      "schema": 3629,
      "Ca": 3630,
      "Ġstop": 3631,
      "Oper": 3632,
      "Ġclean": 3633,
      "Ġmatrix": 3634,
      "ME": 3635,
      "liance": 3636,
      "pping": 3637,
      "{{": 3638,
      "sume": 3639,
      "loads": 3640,
      "tc": 3641,
      "matrix": 3642,
      "vals": 3643,
      "Ġpacket": 3644,
      "ĠUse": 3645,
      "Vector": 3646,
      "(\"%": 3647,
      "Ġlook": 3648,
      "AND": 3649,
      "Ġstep": 3650,
      "ĠEX": 3651,
      "verage": 3652,
      "Ġmember": 3653,
      "('-": 3654,
      "Be": 3655,
      "Ġmask": 3656,
      "PORT": 3657,
      "Protocol": 3658,
      "Ġreference": 3659,
      "ĊĠĠĠĠĠĠĠĠĠĠĠĠĠĠĠĠĠĠĠĠĠĠĠĠĠĠĠĠĠĠĠĠĠĠĠĠ": 3660,
      "Ġhope": 3661,
      "ipe": 3662,
      "Ġmultiple": 3663,
      "hook": 3664,
      "mbed": 3665,
      "Ġ((": 3666,
      "ctype": 3667,
      "ĠApache": 3668,
      "variables": 3669,
      "mean": 3670,
      "language": 3671,
      "]*": 3672,
      "Ver": 3673,
      "Ġ%}": 3674,
      "dentity": 3675,
      "helper": 3676,
      "sity": 3677,
      "/',": 3678,
      "Ġabsolute": 3679,
      "Ġ\".": 3680,
      "Ġgover": 3681,
      "(**": 3682,
      "uce": 3683,
      "expr": 3684,
      "ross": 3685,
      "Ġignore": 3686,
      "ZE": 3687,
      "cision": 3688,
      "gnu": 3689,
      "city": 3690,
      "bd": 3691,
      "cords": 3692,
      "SD": 3693,
      "Status": 3694,
      "WARE": 3695,
      "Ġbyte": 3696,
      "Property": 3697,
      "ĠĠĠĠĠĠĠĠĠĠ": 3698,
      "=_": 3699,
      "medi": 3700,
      "lem": 3701,
      "factory": 3702,
      "mul": 3703,
      "Ġconditions": 3704,
      "WN": 3705,
      "__':": 3706,
      "users": 3707,
      "Ġpol": 3708,
      "ĠAs": 3709,
      "category": 3710,
      "inputs": 3711,
      "Ġwarran": 3712,
      "={'": 3713,
      "Pl": 3714,
      "Ġsplit": 3715,
      "Mo": 3716,
      "Control": 3717,
      "Ġcommands": 3718,
      "FLAG": 3719,
      "Ġenume": 3720,
      "Ġcomment": 3721,
      "video": 3722,
      "actions": 3723,
      "indent": 3724,
      "olver": 3725,
      "######": 3726,
      "TE": 3727,
      "Ġchunk": 3728,
      "modi": 3729,
      "raise": 3730,
      "ORD": 3731,
      "Ġpick": 3732,
      "tems": 3733,
      "Ġenvironment": 3734,
      "API": 3735,
      "stat": 3736,
      "Queue": 3737,
      "precated": 3738,
      "ĠSer": 3739,
      "cret": 3740,
      "folder": 3741,
      "success": 3742,
      "Ġconf": 3743,
      "classmethod": 3744,
      "istory": 3745,
      "ines": 3746,
      "Ġunique": 3747,
      "Ġsupported": 3748,
      "this": 3749,
      "Ġwarranty": 3750,
      "span": 3751,
      "Ġencode": 3752,
      "Ġfinally": 3753,
      "_.": 3754,
      "ASS": 3755,
      "role": 3756,
      "ĠDi": 3757,
      "ĠDefault": 3758,
      "rand": 3759,
      "atter": 3760,
      "License": 3761,
      "Ġtags": 3762,
      "YR": 3763,
      "warning": 3764,
      "escape": 3765,
      "dient": 3766,
      "Method": 3767,
      "Doc": 3768,
      "Ġbeing": 3769,
      "spa": 3770,
      "paths": 3771,
      "hould": 3772,
      "edit": 3773,
      "ixin": 3774,
      "Ġwhether": 3775,
      "bc": 3776,
      "ĠĠĠĠĠĠĠĠĠĠĠĠ": 3777,
      "Ġutils": 3778,
      ";\\": 3779,
      "provider": 3780,
      "253": 3781,
      "ĠLI": 3782,
      "lav": 3783,
      "ĠNotImplemented": 3784,
      "ULL": 3785,
      "ude": 3786,
      "Ġconstructor": 3787,
      "Ġmessages": 3788,
      "voice": 3789,
      "export": 3790,
      "USER": 3791,
      "Ġpaths": 3792,
      "tification": 3793,
      "Ġdocumentation": 3794,
      "Ġrender": 3795,
      "apache": 3796,
      "heet": 3797,
      "reed": 3798,
      "ctx": 3799,
      "Ġ::": 3800,
      "rations": 3801,
      "dentials": 3802,
      "Ġpk": 3803,
      "tivi": 3804,
      "Ġgen": 3805,
      "window": 3806,
      "usage": 3807,
      "vari": 3808,
      "sole": 3809,
      "ROM": 3810,
      "gorithm": 3811,
      "ava": 3812,
      "loop": 3813,
      "ĠFile": 3814,
      "']),": 3815,
      "Ġsix": 3816,
      "FILE": 3817,
      "Ġconver": 3818,
      "Ġarch": 3819,
      "ĠList": 3820,
      "regex": 3821,
      "ority": 3822,
      "wrap": 3823,
      "Ġ_(\"": 3824,
      "grid": 3825,
      "ĠKIND": 3826,
      "enabled": 3827,
      "Ġ})": 3828,
      "particle": 3829,
      "RES": 3830,
      "Ġrepo": 3831,
      "verbose": 3832,
      "dc": 3833,
      "Link": 3834,
      "ĠLo": 3835,
      "Array": 3836,
      "Ġreverse": 3837,
      "rows": 3838,
      "Ġstdout": 3839,
      "sym": 3840,
      "DIT": 3841,
      "Ġ[(": 3842,
      "INTER": 3843,
      "au": 3844,
      "gle": 3845,
      "remote": 3846,
      "Ġrelative": 3847,
      "Wifi": 3848,
      "Warning": 3849,
      "Ġeq": 3850,
      "Ġpattern": 3851,
      "pair": 3852,
      "respon": 3853,
      "lint": 3854,
      "')),": 3855,
      "operator": 3856,
      "ould": 3857,
      "tex": 3858,
      "rer": 3859,
      "rency": 3860,
      "Tensor": 3861,
      "utes": 3862,
      "Ro": 3863,
      "Cur": 3864,
      "Ġboth": 3865,
      "Ġinvalid": 3866,
      "IX": 3867,
      "ĠTh": 3868,
      "Socket": 3869,
      "sentry": 3870,
      "feed": 3871,
      "Ġ\",": 3872,
      "Ġsubprocess": 3873,
      "Ġenumerate": 3874,
      "Ġsql": 3875,
      "TEXT": 3876,
      "Ġstore": 3877,
      "Ġfeature": 3878,
      "Ġrunning": 3879,
      "mk": 3880,
      "INGS": 3881,
      "ĠAttribute": 3882,
      "Random": 3883,
      "icro": 3884,
      "track": 3885,
      "Ġ\"<": 3886,
      "button": 3887,
      "DF": 3888,
      "matic": 3889,
      "cell": 3890,
      "ower": 3891,
      "lookup": 3892,
      "sd": 3893,
      "'[": 3894,
      "fier": 3895,
      "Dele": 3896,
      "ĠParameters": 3897,
      "ĠRa": 3898,
      "partner": 3899,
      "Entry": 3900,
      "IntegerField": 3901,
      "END": 3902,
      "tz": 3903,
      "')},": 3904,
      "Ġ\"-": 3905,
      "Ġjob": 3906,
      "Ġinstall": 3907,
      "engine": 3908,
      "ĠLicensed": 3909,
      "false": 3910,
      "rest": 3911,
      "256": 3912,
      "Ġcannot": 3913,
      "Ġbound": 3914,
      "Ġdiff": 3915,
      "convert": 3916,
      "If": 3917,
      "ĠData": 3918,
      "css": 3919,
      "Ġcursor": 3920,
      "Trace": 3921,
      "protocol": 3922,
      "LECT": 3923,
      "exceptions": 3924,
      "Ġfoo": 3925,
      "DateTime": 3926,
      "IR": 3927,
      "ground": 3928,
      "pointer": 3929,
      "ĠMo": 3930,
      "Ġcomponent": 3931,
      "Ġtheir": 3932,
      "128": 3933,
      "]])": 3934,
      "aml": 3935,
      "tran": 3936,
      "cursor": 3937,
      "Ġwidget": 3938,
      "greg": 3939,
      "MET": 3940,
      "rf": 3941,
      "URE": 3942,
      "Ġ'#": 3943,
      "ifest": 3944,
      "Ġph": 3945,
      "Access": 3946,
      "Multi": 3947,
      ")])": 3948,
      "########################################################################": 3949,
      "MPL": 3950,
      "zh": 3951,
      "Ġmig": 3952,
      "tains": 3953,
      "timestamp": 3954,
      "Ġwould": 3955,
      "mount": 3956,
      "Ġconvert": 3957,
      "reset": 3958,
      "ĠQt": 3959,
      "ERS": 3960,
      "LICENSE": 3961,
      "Ġpossible": 3962,
      "Ġwho": 3963,
      "Ġapplicable": 3964,
      "Ġexpression": 3965,
      "created": 3966,
      "Ġsince": 3967,
      "orter": 3968,
      "imat": 3969,
      "Ġcontainer": 3970,
      "ĠGo": 3971,
      "some": 3972,
      "BO": 3973,
      "Ġshort": 3974,
      "GR": 3975,
      "cii": 3976,
      "roid": 3977,
      "COL": 3978,
      "ĠWhen": 3979,
      "Ġcf": 3980,
      "[:,": 3981,
      "Ġremote": 3982,
      "ancel": 3983,
      "'re": 3984,
      "\\'": 3985,
      "ANG": 3986,
      "Tree": 3987,
      "Ġed": 3988,
      "System": 3989,
      "force": 3990,
      "Ġvideo": 3991,
      "Ġclasses": 3992,
      "lain": 3993,
      "iases": 3994,
      "cla": 3995,
      "{%": 3996,
      "fp": 3997,
      "DATA": 3998,
      "Ġopts": 3999,
      "()),": 4000,
      "Change": 4001,
      "Ġclose": 4002,
      "Parse": 4003,
      "Ġmer": 4004,
      "ĠTo": 4005,
      "ritems": 4006,
      "ving": 4007,
      "Ġelements": 4008,
      "=',": 4009,
      "ourse": 4010,
      "Ġurllib": 4011,
      "Ġthrough": 4012,
      "PUT": 4013,
      "PAR": 4014,
      "Met": 4015,
      "AttributeValue": 4016,
      "rection": 4017,
      "Ġ_('": 4018,
      "ynam": 4019,
      "Ġagain": 4020,
      "Ġcap": 4021,
      "=-": 4022,
      "ferences": 4023,
      "Ġstri": 4024,
      "lear": 4025,
      "Ġfake": 4026,
      "Ġctx": 4027,
      "FTWARE": 4028,
      "SM": 4029,
      "POST": 4030,
      "Resource": 4031,
      "disk": 4032,
      "ites": 4033,
      "pendency": 4034,
      "Ġassoci": 4035,
      "Ġevery": 4036,
      "defined": 4037,
      "([[": 4038,
      "uring": 4039,
      "light": 4040,
      "sequence": 4041,
      "(%": 4042,
      "Ġsess": 4043,
      "Ġ['_": 4044,
      "Ġlayer": 4045,
      "Ġgenerated": 4046,
      "ICE": 4047,
      "Ġrelated": 4048,
      "ithub": 4049,
      "warn": 4050,
      "Ġdf": 4051,
      "Ġwhat": 4052,
      "////////////////////////////////": 4053,
      "agent": 4054,
      "ordin": 4055,
      "Ġexpress": 4056,
      "Ġmove": 4057,
      "support": 4058,
      "()))": 4059,
      "img": 4060,
      "Ġsc": 4061,
      "crement": 4062,
      "eeded": 4063,
      "CG": 4064,
      "'\"": 4065,
      "Ġsuch": 4066,
      "ĠKeyError": 4067,
      "ĠOn": 4068,
      "Ġsort": 4069,
      "pose": 4070,
      "mig": 4071,
      "Ġcontents": 4072,
      "ping": 4073,
      "Ġ'')": 4074,
      "tten": 4075,
      "Container": 4076,
      "eq": 4077,
      "urllib": 4078,
      "Ġbased": 4079,
      "assertIn": 4080,
      "sten": 4081,
      "Boolean": 4082,
      "constant": 4083,
      "Ġdistribution": 4084,
      "acy": 4085,
      "uation": 4086,
      "bad": 4087,
      "irtual": 4088,
      "Many": 4089,
      "Ġfp": 4090,
      "cloud": 4091,
      "Ġpair": 4092,
      "sig": 4093,
      "ĠConfig": 4094,
      "adding": 4095,
      "pare": 4096,
      "hex": 4097,
      "Param": 4098,
      "Ġ----": 4099,
      "Types": 4100,
      "entication": 4101,
      "ĠHT": 4102,
      "agement": 4103,
      "Ġproto": 4104,
      "umeric": 4105,
      "vector": 4106,
      "Ġvalidate": 4107,
      "indices": 4108,
      "inition": 4109,
      "Ġcharacters": 4110,
      ".%": 4111,
      "Ġok": 4112,
      "Ġprotocol": 4113,
      "Ġ15": 4114,
      "integer": 4115,
      "lt": 4116,
      "Color": 4117,
      "SO": 4118,
      "Ġ11": 4119,
      "descriptor": 4120,
      "ACE": 4121,
      "čĊĉ": 4122,
      "Ġbuf": 4123,
      "Ġmissing": 4124,
      "Ġdirect": 4125,
      "Ġqueue": 4126,
      "sep": 4127,
      "cfg": 4128,
      "simple": 4129,
      "endswith": 4130,
      "Filter": 4131,
      "Ġauthor": 4132,
      "master": 4133,
      "BA": 4134,
      "inja": 4135,
      "Ġprevious": 4136,
      "Ġunit": 4137,
      "UTH": 4138,
      "utor": 4139,
      "\"].": 4140,
      "ĠSOFTWARE": 4141,
      "upper": 4142,
      "Ġ----------": 4143,
      "optional": 4144,
      "Ġrequests": 4145,
      "async": 4146,
      "ĠBAS": 4147,
      "sid": 4148,
      "ORS": 4149,
      "DITIONS": 4150,
      "Ġcompliance": 4151,
      "Update": 4152,
      "Ġinputs": 4153,
      "Ġour": 4154,
      "ĠMake": 4155,
      "Ġops": 4156,
      "([])": 4157,
      "ĠUnless": 4158,
      "lang": 4159,
      "ĠAR": 4160,
      "FC": 4161,
      "gger": 4162,
      "ĠHTML": 4163,
      "elif": 4164,
      "Ġspecify": 4165,
      "blocks": 4166,
      "xture": 4167,
      "RECT": 4168,
      "Ġvm": 4169,
      "leg": 4170,
      "ness": 4171,
      "Ġvari": 4172,
      "flag": 4173,
      "six": 4174,
      "lim": 4175,
      "++": 4176,
      "Ġschema": 4177,
      "Ġhttps": 4178,
      "Ġlaw": 4179,
      "dumps": 4180,
      "parts": 4181,
      "Ġoperator": 4182,
      "0001": 4183,
      "Ġparts": 4184,
      "apter": 4185,
      ")\",": 4186,
      "UE": 4187,
      "atom": 4188,
      "PT": 4189,
      "Ġlicense": 4190,
      "tivity": 4191,
      "Ġplace": 4192,
      "Ġagreed": 4193,
      "Ġscope": 4194,
      "127": 4195,
      "views": 4196,
      "ãģ": 4197,
      "pg": 4198,
      "criptor": 4199,
      "enter": 4200,
      "cluster": 4201,
      ",\\": 4202,
      "Ġpool": 4203,
      "Ġlimitations": 4204,
      "Ġinit": 4205,
      ">',": 4206,
      "ĠBASIS": 4207,
      "generate": 4208,
      "layout": 4209,
      "Ġgoverning": 4210,
      "marker": 4211,
      "Ġhow": 4212,
      "hs": 4213,
      "found": 4214,
      "Ġkeep": 4215,
      "Ġsepar": 4216,
      "ĠCONDITIONS": 4217,
      "center": 4218,
      "home": 4219,
      "EC": 4220,
      "ĠTH": 4221,
      "PC": 4222,
      "Ġapplication": 4223,
      "Ġdone": 4224,
      "PRE": 4225,
      "ĠDo": 4226,
      "PER": 4227,
      "ĊĠĠĠĠĠĠĠĠĠĠĠĠĠĠĠĠĠĠĠĠĠĠĠĠĠĠĠĠĠĠĠĠĠĠĠĠĠ": 4228,
      "custom": 4229,
      "uplic": 4230,
      "Template": 4231,
      "Pa": 4232,
      "Ġ30": 4233,
      "cessed": 4234,
      "undle": 4235,
      "ĠOr": 4236,
      "Ġlookup": 4237,
      "Qt": 4238,
      "private": 4239,
      "Ge": 4240,
      "uted": 4241,
      "Ġfinal": 4242,
      "Ġdefaults": 4243,
      "Ġoc": 4244,
      "Ġnotice": 4245,
      "font": 4246,
      "ignore": 4247,
      "Ġcopyright": 4248,
      "download": 4249,
      "zeros": 4250,
      "SA": 4251,
      "Ġkeyword": 4252,
      "ctories": 4253,
      "SG": 4254,
      "vation": 4255,
      "Mixin": 4256,
      "Ġotherwise": 4257,
      ",)": 4258,
      "Button": 4259,
      "Ġsetting": 4260,
      "Max": 4261,
      "zero": 4262,
      "Ġjoin": 4263,
      "ffero": 4264,
      "ĠAffero": 4265,
      "ssl": 4266,
      "Interface": 4267,
      "$',": 4268,
      "hostname": 4269,
      "Ġdouble": 4270,
      "lavor": 4271,
      "dn": 4272,
      "filters": 4273,
      "Ġ[('": 4274,
      "gative": 4275,
      "Failed": 4276,
      "Target": 4277,
      "Ġoverride": 4278,
      "ĠNotImplementedError": 4279,
      "Ġidx": 4280,
      "ĠAttributeError": 4281,
      "Ġexpect": 4282,
      "MAX": 4283,
      "interval": 4284,
      "paces": 4285,
      "Ġappro": 4286,
      "Ġpylint": 4287,
      "123": 4288,
      "'^": 4289,
      "CLUD": 4290,
      "ars": 4291,
      "aved": 4292,
      "Ġcould": 4293,
      "fici": 4294,
      "umb": 4295,
      "enable": 4296,
      "lass": 4297,
      "Ġplatform": 4298,
      "Open": 4299,
      "]',": 4300,
      "Window": 4301,
      "holder": 4302,
      "Ġker": 4303,
      "nan": 4304,
      "SIZE": 4305,
      "Ġgenerator": 4306,
      "RAW": 4307,
      "rl": 4308,
      "faces": 4309,
      "Ġnamed": 4310,
      "Descriptor": 4311,
      "gy": 4312,
      "Port": 4313,
      "Label": 4314,
      "STAT": 4315,
      "basic": 4316,
      "XML": 4317,
      "ĊĠĠĠĠĠĠĠĠĠĠĠĠĠĠĠĠĠĠĠĠĠĠĠĠĠĠĠĠĠĠĠĠĠĠĠĠĠĠ": 4318,
      "ĠAS": 4319,
      "Ġ\"--": 4320,
      "1234": 4321,
      "defaults": 4322,
      "Sy": 4323,
      "Gui": 4324,
      "Ġfn": 4325,
      "wifi": 4326,
      "Ġcorrespon": 4327,
      "Ġdesc": 4328,
      "Ġ14": 4329,
      "itor": 4330,
      "Ġ>>": 4331,
      "IE": 4332,
      "TypeError": 4333,
      "Ġsen": 4334,
      ">\"": 4335,
      "Ġrv": 4336,
      "Ġ32": 4337,
      "ragment": 4338,
      "Ġdisc": 4339,
      "Ġway": 4340,
      "čĊčĊĠĠĠĠĠĠĠ": 4341,
      "library": 4342,
      "__.": 4343,
      "ä¸": 4344,
      "``.": 4345,
      "Ġneeded": 4346,
      "Ġest": 4347,
      "zz": 4348,
      "Ġword": 4349,
      "Ġcluster": 4350,
      "NetDevice": 4351,
      "come": 4352,
      "Ġwindow": 4353,
      "rpc": 4354,
      "Ġloc": 4355,
      "mbols": 4356,
      "resses": 4357,
      "loss": 4358,
      "layers": 4359,
      ")],": 4360,
      "bf": 4361,
      "Ġcolumns": 4362,
      "Ġindent": 4363,
      "akes": 4364,
      "require": 4365,
      "Ġ(%": 4366,
      "ĠBO": 4367,
      "events": 4368,
      "Ġhref": 4369,
      "Ġallowed": 4370,
      "ascii": 4371,
      "IMIT": 4372,
      "Com": 4373,
      "eek": 4374,
      "second": 4375,
      "ĠPo": 4376,
      "Exten": 4377,
      "AutoField": 4378,
      "CLUDING": 4379,
      "iver": 4380,
      "BUG": 4381,
      "Ġproperties": 4382,
      "Ġsm": 4383,
      "ĠST": 4384,
      "IPT": 4385,
      "Ġoutfile": 4386,
      "ished": 4387,
      "ĊĊĊ": 4388,
      "Ġsim": 4389,
      "Ġusers": 4390,
      "fr": 4391,
      "ARY": 4392,
      "amo": 4393,
      "RefCount": 4394,
      "One": 4395,
      "Ġ\"__": 4396,
      "']]],": 4397,
      "almost": 4398,
      "after": 4399,
      "cm": 4400,
      "spatch": 4401,
      "Ġmemory": 4402,
      "ĠOS": 4403,
      "intern": 4404,
      "commands": 4405,
      "LOCK": 4406,
      "contents": 4407,
      "Ġdimen": 4408,
      "Ġrequire": 4409,
      "ĠSH": 4410,
      "nn": 4411,
      "Ġmapping": 4412,
      "Ġconstant": 4413,
      "byte": 4414,
      "override": 4415,
      "security": 4416,
      "Ġmetri": 4417,
      "ĠOTH": 4418,
      "chine": 4419,
      "ĠMock": 4420,
      "sparse": 4421,
      "Ġpid": 4422,
      "rules": 4423,
      "DEL": 4424,
      "havi": 4425,
      "Ġtrack": 4426,
      "ITE": 4427,
      "aterial": 4428,
      "chain": 4429,
      "arge": 4430,
      "ĠAd": 4431,
      "ĠCONTR": 4432,
      "Helper": 4433,
      "Session": 4434,
      "resources": 4435,
      "Thread": 4436,
      "Cache": 4437,
      "Ġloop": 4438,
      "[:-": 4439,
      "Ġuses": 4440,
      "expand": 4441,
      "ĠFROM": 4442,
      "reference": 4443,
      "Ġretri": 4444,
      "feature": 4445,
      "ier": 4446,
      "SimpleRefCount": 4447,
      "DES": 4448,
      "route": 4449,
      "Ġmatches": 4450,
      "\\\"": 4451,
      "lat": 4452,
      "Ġwithin": 4453,
      "Ġinstances": 4454,
      "Logger": 4455,
      "done": 4456,
      "enerp": 4457,
      "Ġexit": 4458,
      "herit": 4459,
      "dar": 4460,
      "CRIPT": 4461,
      "pytest": 4462,
      "creen": 4463,
      "LL": 4464,
      "Ġstandard": 4465,
      "anti": 4466,
      "outputs": 4467,
      "alpha": 4468,
      "prop": 4469,
      "menu": 4470,
      "reverse": 4471,
      "Ġequal": 4472,
      "ĠAc": 4473,
      "Ġevents": 4474,
      "ĠGoogle": 4475,
      "Task": 4476,
      "cing": 4477,
      "alt": 4478,
      "MENT": 4479,
      "reshold": 4480,
      "Ġrights": 4481,
      "month": 4482,
      "ĠĠĠĠĠĠĠĠĠĠĠĠĠĠĠ": 4483,
      "titem": 4484,
      "mitted": 4485,
      "Match": 4486,
      "Ġdt": 4487,
      "Ġplt": 4488,
      "ea": 4489,
      "ĊĠĠĠĠĠĠĠĠĠĠĠĠĠĠĠĠĠĠĠĠĠĠĠĠĠĠĠĠĠĠĠĠĠĠĠĠĠĠĠĠĠĠĠ": 4490,
      "Network": 4491,
      "bi": 4492,
      "Ġchanges": 4493,
      "exist": 4494,
      "ynamic": 4495,
      "....": 4496,
      "Ġmac": 4497,
      "fill": 4498,
      "Ġreason": 4499,
      "rtype": 4500,
      "Ġpoints": 4501,
      "entity": 4502,
      "Ġusage": 4503,
      "tokens": 4504,
      "Ġ'$": 4505,
      "ventory": 4506,
      "\"'": 4507,
      "times": 4508,
      "where": 4509,
      "pick": 4510,
      "suffix": 4511,
      "Deleter": 4512,
      "Ġforms": 4513,
      "Ġimplementation": 4514,
      "seconds": 4515,
      "ĠText": 4516,
      "('--": 4517,
      "resp": 4518,
      "ĠĠĠĠĠĠĠĠĠĠĠĠĠ": 4519,
      "ĠError": 4520,
      "PY": 4521,
      "quested": 4522,
      "grade": 4523,
      "png": 4524,
      "correct": 4525,
      "Ġcompute": 4526,
      "Exp": 4527,
      "Ġcharacter": 4528,
      "Ġcoun": 4529,
      "tected": 4530,
      "INFO": 4531,
      "sleep": 4532,
      "__()": 4533,
      "Ġfeatures": 4534,
      "sertion": 4535,
      "peed": 4536,
      "\\.": 4537,
      "tio": 4538,
      "Ġspecial": 4539,
      "Back": 4540,
      "ified": 4541,
      "``,": 4542,
      "Ġdisk": 4543,
      "liter": 4544,
      "Ġtargets": 4545,
      "Ġbit": 4546,
      "Column": 4547,
      "ones": 4548,
      "virt": 4549,
      "Ġcallable": 4550,
      "region": 4551,
      "tact": 4552,
      "sources": 4553,
      "VENT": 4554,
      "lots": 4555,
      "dom": 4556,
      "Ġpredi": 4557,
      "Options": 4558,
      "------------": 4559,
      "Ġpop": 4560,
      "available": 4561,
      "Pri": 4562,
      "Ġdetermin": 4563,
      "DR": 4564,
      "Ġparsed": 4565,
      "Ġproxy": 4566,
      "MB": 4567,
      "Ġassociated": 4568,
      "Ġheight": 4569,
      "browse": 4570,
      "rot": 4571,
      "Ġinv": 4572,
      "Ġanother": 4573,
      "cols": 4574,
      "Ġpublic": 4575,
      "CHE": 4576,
      "choices": 4577,
      "Graph": 4578,
      "named": 4579,
      "ĠAl": 4580,
      "='',": 4581,
      "(\"\\": 4582,
      "ached": 4583,
      "mar": 4584,
      "unded": 4585,
      "UTE": 4586,
      "001": 4587,
      "Ġupdated": 4588,
      ",\"": 4589,
      "Wrapper": 4590,
      "loaded": 4591,
      "Ġpolicy": 4592,
      "angle": 4593,
      "ighb": 4594,
      "iso": 4595,
      "Ġblank": 4596,
      "owner": 4597,
      "alle": 4598,
      "rp": 4599,
      "pkg": 4600,
      "Ġspace": 4601,
      "_)": 4602,
      "media": 4603,
      "chunk": 4604,
      "##############################################################################": 4605,
      "amount": 4606,
      "sitory": 4607,
      "components": 4608,
      "NOT": 4609,
      "note": 4610,
      "iteritems": 4611,
      "VERSION": 4612,
      "Ġpytest": 4613,
      "links": 4614,
      "Ġmean": 4615,
      "dat": 4616,
      "soft": 4617,
      "Ġrest": 4618,
      "Op": 4619,
      "backend": 4620,
      "Ġmodules": 4621,
      "UU": 4622,
      "bucket": 4623,
      "free": 4624,
      "Length": 4625,
      "DateTimeField": 4626,
      "company": 4627,
      "Ġadmin": 4628,
      "Ġdivision": 4629,
      "cores": 4630,
      "depth": 4631,
      "amily": 4632,
      "istration": 4633,
      "Ġtoo": 4634,
      "Ġstderr": 4635,
      "nected": 4636,
      "Ġcategory": 4637,
      "unct": 4638,
      "staticmethod": 4639,
      "define": 4640,
      ",))": 4641,
      "Ġentity": 4642,
      "learn": 4643,
      "Ġreserved": 4644,
      "Ġtokens": 4645,
      "rence": 4646,
      "tenant": 4647,
      "rank": 4648,
      "Min": 4649,
      "Ġlock": 4650,
      "az": 4651,
      "Ġgroups": 4652,
      "signal": 4653,
      "ons": 4654,
      "uting": 4655,
      "IF": 4656,
      "SQL": 4657,
      "ĠCOP": 4658,
      "database": 4659,
      "Ġredirect": 4660,
      "Ġinte": 4661,
      "'\",": 4662,
      "aris": 4663,
      "gments": 4664,
      "New": 4665,
      "Ġscale": 4666,
      "NotFound": 4667,
      "Ġrel": 4668,
      "SY": 4669,
      "Level": 4670,
      "Ċĉĉĉĉĉ": 4671,
      "internal": 4672,
      "Ġsignal": 4673,
      "ia": 4674,
      "fb": 4675,
      "Ġlogin": 4676,
      "icon": 4677,
      "Ġsym": 4678,
      "generator": 4679,
      "EG": 4680,
      "Ġbar": 4681,
      "]):": 4682,
      "Ġrelease": 4683,
      "targets": 4684,
      "Edit": 4685,
      "assertAll": 4686,
      "proc": 4687,
      "ĠMan": 4688,
      "unch": 4689,
      "Ġprofile": 4690,
      "Ġlet": 4691,
      "ĠXML": 4692,
      "ĠApp": 4693,
      "branch": 4694,
      "ptr": 4695,
      "Ġseconds": 4696,
      "Ġzero": 4697,
      "Ne": 4698,
      "Empty": 4699,
      "Ġrepr": 4700,
      "USE": 4701,
      "Ġactive": 4702,
      "ĠTime": 4703,
      "Ġoutputs": 4704,
      "summary": 4705,
      ",),": 4706,
      "tty": 4707,
      "ork": 4708,
      "Range": 4709,
      "Sup": 4710,
      "transform": 4711,
      "verify": 4712,
      "Ġrules": 4713,
      "numpy": 4714,
      "stant": 4715,
      "rong": 4716,
      "ffff": 4717,
      "Python": 4718,
      "Ġrole": 4719,
      "Parameter": 4720,
      "Ġhigh": 4721,
      "Ġadditional": 4722,
      "shift": 4723,
      "Close": 4724,
      "(('": 4725,
      "atrix": 4726,
      "atible": 4727,
      "Lib": 4728,
      "Ġaccept": 4729,
      "Ġrows": 4730,
      "secret": 4731,
      "scal": 4732,
      "Ġfeed": 4733,
      "Bit": 4734,
      "[^": 4735,
      "cert": 4736,
      "csv": 4737,
      "Order": 4738,
      "Ġsuffix": 4739,
      "gment": 4740,
      "____": 4741,
      "struction": 4742,
      "/>.": 4743,
      "Ġtool": 4744,
      "mapping": 4745,
      "amma": 4746,
      "Ġwin": 4747,
      "Impl": 4748,
      "payload": 4749,
      "Ġmost": 4750,
      "wards": 4751,
      "missing": 4752,
      "snapshot": 4753,
      "eve": 4754,
      "vas": 4755,
      "Ġenable": 4756,
      "docs": 4757,
      "configuration": 4758,
      "Sto": 4759,
      "ĠHttp": 4760,
      "Project": 4761,
      "lap": 4762,
      "publish": 4763,
      "just": 4764,
      ".\",": 4765,
      "Ġfilters": 4766,
      "uate": 4767,
      "strict": 4768,
      "(\"/": 4769,
      "Ġsite": 4770,
      "gits": 4771,
      "Ġescape": 4772,
      "Ġtx": 4773,
      "ipv": 4774,
      "Ġkw": 4775,
      "testing": 4776,
      "price": 4777,
      "factor": 4778,
      "ĠBu": 4779,
      "single": 4780,
      "Ġoccur": 4781,
      "images": 4782,
      "sibility": 4783,
      "ĠRequest": 4784,
      "break": 4785,
      "+'": 4786,
      "mpt": 4787,
      "Ġgot": 4788,
      "Ġdataset": 4789,
      "question": 4790,
      "norm": 4791,
      "super": 4792,
      "Prefix": 4793,
      "Ġ])": 4794,
      "osv": 4795,
      "ros": 4796,
      "analy": 4797,
      "Layout": 4798,
      "Ġvia": 4799,
      "raft": 4800,
      "7701": 4801,
      "cription": 4802,
      "ilt": 4803,
      "ĠSub": 4804,
      "/'": 4805,
      "logging": 4806,
      "FORMAT": 4807,
      "ransport": 4808,
      "assertNot": 4809,
      "Ġcfg": 4810,
      "Ġentries": 4811,
      "pn": 4812,
      "roy": 4813,
      "rays": 4814,
      "ĠUSE": 4815,
      "Ġwrap": 4816,
      "ONE": 4817,
      "Ġwx": 4818,
      "Ġrc": 4819,
      "itespace": 4820,
      "ĠValid": 4821,
      "anel": 4822,
      "atterns": 4823,
      "drop": 4824,
      "ĠNO": 4825,
      "Ġitera": 4826,
      "('<": 4827,
      "ĠMA": 4828,
      "Ġremoved": 4829,
      "8859": 4830,
      "FLAGS": 4831,
      "abspath": 4832,
      "Ġoprot": 4833,
      "Ġautomatic": 4834,
      "sha": 4835,
      "Struct": 4836,
      "Ġpe": 4837,
      "Ġapply": 4838,
      "Ġneeds": 4839,
      "ĠJSON": 4840,
      "imator": 4841,
      "urnal": 4842,
      "Ġexport": 4843,
      "memory": 4844,
      "Policy": 4845,
      "basename": 4846,
      "Ġsent": 4847,
      "rb": 4848,
      "Ġdecode": 4849,
      "nu": 4850,
      "Stack": 4851,
      "(\"\"\"": 4852,
      "ansible": 4853,
      "Ġhead": 4854,
      "secs": 4855,
      "*.": 4856,
      "framework": 4857,
      "Exec": 4858,
      "SELECT": 4859,
      "ĠNumber": 4860,
      "Byte": 4861,
      "Ġ-=": 4862,
      "}}": 4863,
      "asis": 4864,
      "Ġbackend": 4865,
      "Ġdev": 4866,
      "atten": 4867,
      "Ġensure": 4868,
      "enum": 4869,
      "Ġcop": 4870,
      "boolean": 4871,
      "rectories": 4872,
      "Ġ\"\",": 4873,
      "Fail": 4874,
      "Ġbad": 4875,
      "redirect": 4876,
      "Ġmatching": 4877,
      "alk": 4878,
      "ĠOptional": 4879,
      "Admin": 4880,
      ":'": 4881,
      "Ġcalls": 4882,
      "complete": 4883,
      "Ġutil": 4884,
      "ĠBy": 4885,
      "Ġpayload": 4886,
      "Ġstorage": 4887,
      "ĠQgs": 4888,
      "ural": 4889,
      "Ġcomplete": 4890,
      "click": 4891,
      "failed": 4892,
      "101": 4893,
      "ence": 4894,
      "Ġselected": 4895,
      "MIN": 4896,
      "Ġregion": 4897,
      "Ġwere": 4898,
      "days": 4899,
      "ĠMode": 4900,
      "internet": 4901,
      "Ġgyp": 4902,
      "Ġinstalled": 4903,
      "inf": 4904,
      "ĠVariable": 4905,
      "čĊĠĠĠĠĠĠĠĠĠĠĠĠĠĠĠĠĠĠĠ": 4906,
      "Ġconnect": 4907,
      "gb": 4908,
      "serve": 4909,
      "Ġmeans": 4910,
      "Ġverify": 4911,
      "moves": 4912,
      "Ġtimestamp": 4913,
      "__.__": 4914,
      "Ġraised": 4915,
      "weights": 4916,
      "Ġcell": 4917,
      "Ġindices": 4918,
      "~~~~~~~~": 4919,
      "gether": 4920,
      "expect": 4921,
      "Ġfolder": 4922,
      "cluding": 4923,
      "LIST": 4924,
      "clar": 4925,
      "Ġhand": 4926,
      "gp": 4927,
      "Ġkind": 4928,
      "SL": 4929,
      "boot": 4930,
      "Ġweights": 4931,
      "ĠMy": 4932,
      "Sec": 4933,
      "culate": 4934,
      "Information": 4935,
      "Proxy": 4936,
      "ough": 4937,
      "IAL": 4938,
      "flush": 4939,
      "Sign": 4940,
      "using": 4941,
      "Ext": 4942,
      "HTML": 4943,
      "Ġ13": 4944,
      "Ġxrange": 4945,
      "supported": 4946,
      "LOG": 4947,
      "YPE": 4948,
      "ĠUp": 4949,
      "tdc": 4950,
      "ĊĊĠĠĠĠĠĠĠĠĠĠĠĠĠĠĠĠĠĠĠ": 4951,
      "Ġenum": 4952,
      "AttributeChecker": 4953,
      "Ġperson": 4954,
      "Ġsignature": 4955,
      "logy": 4956,
      "isted": 4957,
      "arguments": 4958,
      ".)": 4959,
      "ĠĊĠĠĠĠĠĠĠ": 4960,
      "TIME": 4961,
      "GE": 4962,
      "FN": 4963,
      "rev": 4964,
      "Host": 4965,
      "Wri": 4966,
      "Ġexceptions": 4967,
      "currency": 4968,
      "orary": 4969,
      "_%": 4970,
      "ISE": 4971,
      "distribution": 4972,
      "Ġsupp": 4973,
      "Ftdc": 4974,
      "Ġwrapper": 4975,
      "Ġissue": 4976,
      "wner": 4977,
      "Ġchildren": 4978,
      "pted": 4979,
      "DU": 4980,
      "states": 4981,
      "bal": 4982,
      "Ġpermission": 4983,
      "outfile": 4984,
      "SV": 4985,
      "Pass": 4986,
      "Ġans": 4987,
      "}\\": 4988,
      "kernel": 4989,
      "pipe": 4990,
      "fabric": 4991,
      ")).": 4992,
      "uit": 4993,
      "nb": 4994,
      "router": 4995,
      "ĠColumn": 4996,
      "crypt": 4997,
      "apply": 4998,
      "202": 4999,
      "dic": 5000,
      "Ġ//": 5001,
      "Ġmany": 5002,
      "Layer": 5003,
      "ĠIO": 5004,
      "extract": 5005,
      "hello": 5006,
      "Ġinternal": 5007,
      "9999": 5008,
      "Ġ{})": 5009,
      "ĠOTHER": 5010,
      "tist": 5011,
      "dr": 5012,
      "ĠNode": 5013,
      "DefaultDeleter": 5014,
      "arted": 5015,
      "yg": 5016,
      "vid": 5017,
      "Ket": 5018,
      "tl": 5019,
      "Ġstats": 5020,
      "actor": 5021,
      "Ġprovider": 5022,
      "Ġfont": 5023,
      "ĠField": 5024,
      "ĠIMP": 5025,
      ":`.": 5026,
      "Ġexplicit": 5027,
      "repe": 5028,
      "wrapper": 5029,
      "dl": 5030,
      "github": 5031,
      "xn": 5032,
      "Ġcpu": 5033,
      "rappe": 5034,
      "WS": 5035,
      "BooleanField": 5036,
      "begin": 5037,
      "assign": 5038,
      "Application": 5039,
      "attach": 5040,
      "Ġ'{": 5041,
      "Ġdst": 5042,
      "original": 5043,
      "ĠReg": 5044,
      "fmt": 5045,
      "Ġboolean": 5046,
      "facts": 5047,
      "Ġsafe": 5048,
      "Ġ64": 5049,
      "mediate": 5050,
      "ĠLOG": 5051,
      "Ġiprot": 5052,
      "Ġcli": 5053,
      "tasks": 5054,
      "Ġcollections": 5055,
      "ĠSIGN": 5056,
      "ferred": 5057,
      "Sp": 5058,
      "ĠLIC": 5059,
      "Flow": 5060,
      "Plugin": 5061,
      "Ġprimary": 5062,
      "road": 5063,
      "upload": 5064,
      "Rule": 5065,
      "yes": 5066,
      "PS": 5067,
      "vis": 5068,
      "sheet": 5069,
      "ĠEN": 5070,
      "Ġprev": 5071,
      "Unit": 5072,
      "UBLE": 5073,
      "Ġrequires": 5074,
      "lity": 5075,
      "big": 5076,
      "Ġloader": 5077,
      "VICE": 5078,
      "sqrt": 5079,
      "tities": 5080,
      "Enum": 5081,
      "Ġ))": 5082,
      "Reference": 5083,
      "Ġbelow": 5084,
      "cheduler": 5085,
      "mpy": 5086,
      "details": 5087,
      "ĠBo": 5088,
      "once": 5089,
      "Ġassign": 5090,
      "kind": 5091,
      "inx": 5092,
      "../": 5093,
      "final": 5094,
      "choice": 5095,
      "sock": 5096,
      "game": 5097,
      "rq": 5098,
      "ĠCO": 5099,
      "FE": 5100,
      "ĊĠĠĠĠĠĠĠĠĠĠĠĠĠĠĠĠĠĠĠĠĠĠĠĠĠĠĠĠĠĠĠĠĠĠĠĠĠĠĠĠĠ": 5101,
      "(',": 5102,
      "Regex": 5103,
      "OLD": 5104,
      "sur": 5105,
      "()]": 5106,
      "cv": 5107,
      "Ġuri": 5108,
      "()):": 5109,
      "FIL": 5110,
      "ressed": 5111,
      "Ġbehavi": 5112,
      "ĠLICENSE": 5113,
      "Ġkernel": 5114,
      "pure": 5115,
      "Copy": 5116,
      "Ġlower": 5117,
      "->": 5118,
      "dst": 5119,
      "Ġincluded": 5120,
      "'d": 5121,
      "\":\"": 5122,
      "OPT": 5123,
      "Ġdependencies": 5124,
      "term": 5125,
      "Ġavoid": 5126,
      "MD": 5127,
      "Ġprob": 5128,
      "ado": 5129,
      ")(": 5130,
      "Ġalpha": 5131,
      "poch": 5132,
      "Ġuntil": 5133,
      "ficient": 5134,
      "linux": 5135,
      "Float": 5136,
      "Ġplot": 5137,
      "ĠLIMIT": 5138,
      "Ġstill": 5139,
      "plan": 5140,
      "à¥": 5141,
      "Metadata": 5142,
      "lack": 5143,
      "Mask": 5144,
      "Ġshutil": 5145,
      "hosts": 5146,
      "Ġperform": 5147,
      "Ġidentifier": 5148,
      "park": 5149,
      "Comm": 5150,
      "\"\",": 5151,
      "gettext": 5152,
      "SC": 5153,
      "packages": 5154,
      "symbol": 5155,
      "']))": 5156,
      "Tool": 5157,
      "So": 5158,
      "external": 5159,
      "Ġproblem": 5160,
      "anner": 5161,
      "Ġalias": 5162,
      "Ġregex": 5163,
      "Ġstatement": 5164,
      "metric": 5165,
      "Ġopenerp": 5166,
      "sn": 5167,
      "didate": 5168,
      "(?:": 5169,
      "ium": 5170,
      "Ġsupports": 5171,
      "WORD": 5172,
      "edge": 5173,
      "Ġtab": 5174,
      "('.": 5175,
      "seed": 5176,
      "LIED": 5177,
      "Ġsparse": 5178,
      "ĠDAM": 5179,
      "hour": 5180,
      "apps": 5181,
      "before": 5182,
      "RandomVariable": 5183,
      "quot": 5184,
      "ĠĠĠĠĠĠĠĠĠĠĠĠĠĠ": 5185,
      "sync": 5186,
      "unknown": 5187,
      "404": 5188,
      "registry": 5189,
      "Ġtraceback": 5190,
      "period": 5191,
      "FIX": 5192,
      "zen": 5193,
      "kip": 5194,
      "Off": 5195,
      "DC": 5196,
      "cos": 5197,
      "Ġ1000": 5198,
      "duction": 5199,
      "Ġpipe": 5200,
      "Argument": 5201,
      "rowser": 5202,
      "ports": 5203,
      "Ġthose": 5204,
      "cessary": 5205,
      "sim": 5206,
      "+\"": 5207,
      "udio": 5208,
      "unic": 5209,
      "Ġleast": 5210,
      "HEAD": 5211,
      "Ġ60": 5212,
      "Ġ<<": 5213,
      "dataset": 5214,
      "timeError": 5215,
      "inner": 5216,
      "reshape": 5217,
      "Ġshell": 5218,
      "Ġattemp": 5219,
      "ony": 5220,
      "wisted": 5221,
      "Ġnd": 5222,
      "Ġenabled": 5223,
      "slice": 5224,
      "Ġjo": 5225,
      "Ġcorresponding": 5226,
      "|'": 5227,
      "ĠStringIO": 5228,
      "Script": 5229,
      "istri": 5230,
      "dius": 5231,
      "Ġplay": 5232,
      "signature": 5233,
      "([\"": 5234,
      "Ġdownload": 5235,
      "Ġvol": 5236,
      "issue": 5237,
      "Ġ50": 5238,
      "ĠDRAW": 5239,
      "ĠBOX": 5240,
      "Ġsuite": 5241,
      "':'": 5242,
      "Ġ[-": 5243,
      "ĠSh": 5244,
      "cached": 5245,
      "Ġbranch": 5246,
      "meth": 5247,
      "ETE": 5248,
      "tpg": 5249,
      "arr": 5250,
      "ceive": 5251,
      "fname": 5252,
      "Ġdriver": 5253,
      "complex": 5254,
      "REQU": 5255,
      "Ġmanager": 5256,
      "rew": 5257,
      "ĠON": 5258,
      "Ġsig": 5259,
      "units": 5260,
      "Ġins": 5261,
      "Ġconstants": 5262,
      "ationError": 5263,
      "Ċĉĉĉĉĉĉ": 5264,
      "plugins": 5265,
      "ĠDI": 5266,
      "Ġfetch": 5267,
      "Settings": 5268,
      "Ġscal": 5269,
      "reduce": 5270,
      "REE": 5271,
      "Ġsymbol": 5272,
      "exer": 5273,
      "Ġsources": 5274,
      "translate": 5275,
      "ĠDRAWINGS": 5276,
      "iti": 5277,
      "Search": 5278,
      "1000": 5279,
      "ATTR": 5280,
      "Bar": 5281,
      "amp": 5282,
      "Ġedit": 5283,
      "024": 5284,
      "}'.": 5285,
      "mem": 5286,
      "DEBUG": 5287,
      "Ġmaster": 5288,
      "ĠDis": 5289,
      "LED": 5290,
      "uest": 5291,
      "ĠIMPLIED": 5292,
      "HERE": 5293,
      "ga": 5294,
      "Ġsq": 5295,
      "LS": 5296,
      "ĠLog": 5297,
      "lon": 5298,
      "ied": 5299,
      "Ġcomb": 5300,
      "unpack": 5301,
      "tect": 5302,
      "400": 5303,
      "LEN": 5304,
      "Ġreset": 5305,
      "cookie": 5306,
      "Spec": 5307,
      "567": 5308,
      "Ġduring": 5309,
      "Ġ\"{": 5310,
      "ĠHe": 5311,
      "partition": 5312,
      "Ġwritten": 5313,
      "itation": 5314,
      "Ġbucket": 5315,
      "Ġasync": 5316,
      "Ġnote": 5317,
      "Flag": 5318,
      "wik": 5319,
      "Ġ')": 5320,
      "/{": 5321,
      "Ġvals": 5322,
      "Ġoptim": 5323,
      "Ġput": 5324,
      "Ġfix": 5325,
      "px": 5326,
      "subnet": 5327,
      "failure": 5328,
      "parameter": 5329,
      "Ġtar": 5330,
      "Ġoperations": 5331,
      "ulation": 5332,
      "lite": 5333,
      "updated": 5334,
      "push": 5335,
      "xxxx": 5336,
      "counter": 5337,
      "istered": 5338,
      "Local": 5339,
      "Ġsl": 5340,
      "Ġexecute": 5341,
      "BB": 5342,
      "Ġtesting": 5343,
      "Ġrecur": 5344,
      "00000": 5345,
      "ĠGe": 5346,
      "ORY": 5347,
      "Ġexpr": 5348,
      "Ren": 5349,
      "inv": 5350,
      "builtin": 5351,
      "calls": 5352,
      "STRING": 5353,
      "inary": 5354,
      "scribe": 5355,
      "ftime": 5356,
      "IZ": 5357,
      "Channel": 5358,
      "extensions": 5359,
      "gation": 5360,
      "Ġyear": 5361,
      "arm": 5362,
      "ĠRE": 5363,
      "identifier": 5364,
      "ĠNet": 5365,
      "Ġside": 5366,
      "ĠSpeci": 5367,
      "ench": 5368,
      "tar": 5369,
      "Ġdirectly": 5370,
      "Ġsetattr": 5371,
      "FR": 5372,
      "utron": 5373,
      "ategy": 5374,
      "Print": 5375,
      "Ġden": 5376,
      "Ġuuid": 5377,
      "COMM": 5378,
      "Attributes": 5379,
      "dims": 5380,
      "sired": 5381,
      "Ġday": 5382,
      "AGES": 5383,
      "ading": 5384,
      "ĠSQL": 5385,
      "Ġbegin": 5386,
      "hass": 5387,
      "teration": 5388,
      "Ġmerge": 5389,
      "DATE": 5390,
      "sumer": 5391,
      "Delete": 5392,
      "lendar": 5393,
      "condition": 5394,
      "sgi": 5395,
      "Ġscore": 5396,
      "ERT": 5397,
      "Ġbind": 5398,
      "IVE": 5399,
      "ĠBUT": 5400,
      "Ġweight": 5401,
      "Core": 5402,
      "Ġonce": 5403,
      "invoice": 5404,
      "Ġderi": 5405,
      "IBUT": 5406,
      "Rou": 5407,
      "WE": 5408,
      ":``": 5409,
      "screen": 5410,
      "uni": 5411,
      "Ġseq": 5412,
      "SSL": 5413,
      "istribu": 5414,
      "uplicate": 5415,
      "acti": 5416,
      "ĠWindows": 5417,
      "environment": 5418,
      "Ġworks": 5419,
      "Ġsubject": 5420,
      "allback": 5421,
      "cording": 5422,
      "Ġetc": 5423,
      ":\"": 5424,
      "ident": 5425,
      "Ġ\"#": 5426,
      "visit": 5427,
      "ird": 5428,
      "ĠCom": 5429,
      "CTION": 5430,
      "Ġtimes": 5431,
      "Err": 5432,
      "Record": 5433,
      "ulate": 5434,
      "appen": 5435,
      "Ġclear": 5436,
      "VID": 5437,
      "Ġnative": 5438,
      "ĠOther": 5439,
      "')]": 5440,
      "ROOT": 5441,
      "Ġep": 5442,
      "MAP": 5443,
      "ĠVer": 5444,
      "Ġactions": 5445,
      "Select": 5446,
      "arison": 5447,
      "Ġpr": 5448,
      "HOST": 5449,
      "Ġ255": 5450,
      "warnings": 5451,
      "Ġtake": 5452,
      "Pool": 5453,
      "ĠDoc": 5454,
      "Loader": 5455,
      "requen": 5456,
      "asure": 5457,
      "ĠTemplate": 5458,
      "Ġversions": 5459,
      "eries": 5460,
      "Ġdump": 5461,
      "ilities": 5462,
      "Ġdeleted": 5463,
      "slug": 5464,
      "strings": 5465,
      "mc": 5466,
      "enu": 5467,
      "proj": 5468,
      "}\".": 5469,
      "acc": 5470,
      "ĠLIMITED": 5471,
      "impl": 5472,
      "exclude": 5473,
      "sr": 5474,
      "Ġmak": 5475,
      "pendent": 5476,
      "Ġvector": 5477,
      "Ġextensions": 5478,
      "Ġ{},": 5479,
      "sess": 5480,
      "Ġaliases": 5481,
      "Cre": 5482,
      "Make": 5483,
      "person": 5484,
      "draw": 5485,
      "setdefault": 5486,
      "CF": 5487,
      "OB": 5488,
      "Ġstored": 5489,
      "peri": 5490,
      "writer": 5491,
      "Ġdefinition": 5492,
      "ĊĠĠĠĠĠĠĠĠĊĠĠĠ": 5493,
      "Ġcookie": 5494,
      "ĠCode": 5495,
      "Ġpkg": 5496,
      "CUM": 5497,
      "ä»": 5498,
      "ĠIndex": 5499,
      "student": 5500,
      "Ġ_,": 5501,
      "Store": 5502,
      "reader": 5503,
      "Ġ24": 5504,
      "rup": 5505,
      "detail": 5506,
      "seek": 5507,
      "locale": 5508,
      "Ġdecor": 5509,
      "ssh": 5510,
      "selected": 5511,
      "scheme": 5512,
      "figs": 5513,
      "Ġ-------": 5514,
      "ĠSy": 5515,
      "Ġsubclass": 5516,
      "Ġawait": 5517,
      "Ġinsert": 5518,
      "aving": 5519,
      "gregate": 5520,
      "Ġwell": 5521,
      "Ġ'\"": 5522,
      "Ġstructure": 5523,
      "Unless": 5524,
      "Ġignored": 5525,
      "Ġbest": 5526,
      "elements": 5527,
      "Ġbutton": 5528,
      "',),": 5529,
      "tax": 5530,
      "ĠCourse": 5531,
      "Ġcommit": 5532,
      "234": 5533,
      "Ġassume": 5534,
      "Files": 5535,
      "Ġextract": 5536,
      "Ġtermin": 5537,
      "controller": 5538,
      "raries": 5539,
      "modified": 5540,
      "assifier": 5541,
      "Ġfit": 5542,
      "ĠPre": 5543,
      "Ġcurrently": 5544,
      "transport": 5545,
      "oriz": 5546,
      ")?": 5547,
      "Ġlists": 5548,
      "Ġtempfile": 5549,
      "JECT": 5550,
      "ffect": 5551,
      "Ġaddr": 5552,
      "duration": 5553,
      "Ġfill": 5554,
      "shared": 5555,
      "You": 5556,
      "Ġ17": 5557,
      "Ġcondition": 5558,
      "constants": 5559,
      "Ġcases": 5560,
      "lab": 5561,
      "ridge": 5562,
      "Ġalgorithm": 5563,
      "Document": 5564,
      "}.": 5565,
      "zKet": 5566,
      "lert": 5567,
      "VAR": 5568,
      "CONFIG": 5569,
      "history": 5570,
      "Bytes": 5571,
      "getLogger": 5572,
      "ãĤ": 5573,
      "ĠRead": 5574,
      "absent": 5575,
      "Ġproper": 5576,
      "Ġctypes": 5577,
      "Ġregular": 5578,
      "Ġnumbers": 5579,
      "AUTH": 5580,
      "urity": 5581,
      "identity": 5582,
      "Ab": 5583,
      "Ġsw": 5584,
      "expi": 5585,
      "handlers": 5586,
      "Remove": 5587,
      "reater": 5588,
      "uses": 5589,
      "distance": 5590,
      "ĠĊĠĠĠ": 5591,
      "selection": 5592,
      "\"}),": 5593,
      "Ġmight": 5594,
      "Begin": 5595,
      "ards": 5596,
      "Ġbasis": 5597,
      "conv": 5598,
      "expression": 5599,
      "VALID": 5600,
      "two": 5601,
      "series": 5602,
      "ĠLIABILITY": 5603,
      "fies": 5604,
      "arange": 5605,
      "dence": 5606,
      "pdf": 5607,
      "quiv": 5608,
      "bits": 5609,
      "bus": 5610,
      "ĠGroup": 5611,
      "ĠNe": 5612,
      "distributions": 5613,
      "arDown": 5614,
      "mag": 5615,
      "REG": 5616,
      "LIB": 5617,
      "cks": 5618,
      "Dialog": 5619,
      "Ġ----------------------------------------------------------------": 5620,
      "Ġloss": 5621,
      "ANS": 5622,
      "chemy": 5623,
      "vide": 5624,
      "Position": 5625,
      "should": 5626,
      "Ġdefine": 5627,
      "merge": 5628,
      "Ġhome": 5629,
      "ords": 5630,
      "constraint": 5631,
      "anization": 5632,
      "em": 5633,
      "ĠDjango": 5634,
      "okies": 5635,
      "vely": 5636,
      "999": 5637,
      "DEF": 5638,
      "Current": 5639,
      "Rel": 5640,
      "shell": 5641,
      "hidden": 5642,
      "qty": 5643,
      "ĊĠĠĠĠĠĠĠĠĠĠĠĠĠĠĠĠĠĠĠĠĠĠĠĠĠĠĠĠĠĠĠĠĠĠĠĠĠĠĠĠĠĠ": 5644,
      "pub": 5645,
      "freq": 5646,
      "Ġprovide": 5647,
      "sage": 5648,
      "builder": 5649,
      "vol": 5650,
      "Ġtr": 5651,
      "power": 5652,
      "ian": 5653,
      "ynch": 5654,
      "priate": 5655,
      "switch": 5656,
      "Ð°": 5657,
      "glext": 5658,
      "roadcast": 5659,
      "asy": 5660,
      "Ġ25": 5661,
      "iling": 5662,
      "Ph": 5663,
      "Ġblocks": 5664,
      "Obj": 5665,
      "Ġappend": 5666,
      "Num": 5667,
      "gis": 5668,
      "Ġimplement": 5669,
      "READ": 5670,
      "digest": 5671,
      "Ġstat": 5672,
      "ĠModule": 5673,
      "Over": 5674,
      "getattr": 5675,
      "Ag": 5676,
      "veloper": 5677,
      "Ġbasic": 5678,
      "ĠExample": 5679,
      "###": 5680,
      "ĠDOUBLE": 5681,
      "rm": 5682,
      "beta": 5683,
      "Ġvisit": 5684,
      "Ġ42": 5685,
      "Foo": 5686,
      "Ġscheme": 5687,
      "Configuration": 5688,
      "Ġbox": 5689,
      "relation": 5690,
      "Jo": 5691,
      "ãĥ": 5692,
      "permission": 5693,
      "accept": 5694,
      "================================================================": 5695,
      "Ġmaximum": 5696,
      "lier": 5697,
      "ĠSU": 5698,
      "AF": 5699,
      "tid": 5700,
      "prev": 5701,
      "ĠReserved": 5702,
      "ited": 5703,
      "Ġappe": 5704,
      "Ġown": 5705,
      "Ġremain": 5706,
      "inte": 5707,
      "TC": 5708,
      "Ġshared": 5709,
      "rees": 5710,
      "ek": 5711,
      "Ġisn": 5712,
      "My": 5713,
      "dependencies": 5714,
      "Ġknow": 5715,
      "YRIGHT": 5716,
      "dtypes": 5717,
      "Ġzone": 5718,
      "ris": 5719,
      "running": 5720,
      "Ġwarning": 5721,
      "cture": 5722,
      "ĠThese": 5723,
      "Ġdestination": 5724,
      "Bad": 5725,
      "Ġprivate": 5726,
      "__\":": 5727,
      ":])": 5728,
      "atum": 5729,
      "cmp": 5730,
      "oted": 5731,
      "ĠWH": 5732,
      "Initial": 5733,
      "progress": 5734,
      "operation": 5735,
      "Profile": 5736,
      "Ġencoded": 5737,
      "ĠOUT": 5738,
      "Ġglob": 5739,
      "Ġsnapshot": 5740,
      "Ã©": 5741,
      "Accessor": 5742,
      "align": 5743,
      "imax": 5744,
      "DD": 5745,
      "topic": 5746,
      "MT": 5747,
      "ARK": 5748,
      "ĠTHIS": 5749,
      "browser": 5750,
      "backup": 5751,
      "LOC": 5752,
      "nail": 5753,
      "middleware": 5754,
      "inder": 5755,
      "192": 5756,
      "OO": 5757,
      "ays": 5758,
      "Ġhook": 5759,
      "Ġexclude": 5760,
      "Gra": 5761,
      "Ġdelta": 5762,
      "SP": 5763,
      "reason": 5764,
      "Next": 5765,
      "tod": 5766,
      "Ġrecords": 5767,
      "suite": 5768,
      "============": 5769,
      "lso": 5770,
      "Ġowner": 5771,
      "compiler": 5772,
      "ĠTe": 5773,
      "ongo": 5774,
      "rozen": 5775,
      "itle": 5776,
      "functions": 5777,
      "iterator": 5778,
      "Http": 5779,
      "dp": 5780,
      "subprocess": 5781,
      "RY": 5782,
      "500": 5783,
      "Ġnecessary": 5784,
      "compare": 5785,
      "PRESS": 5786,
      "ĠXXX": 5787,
      "ORE": 5788,
      "ai": 5789,
      "predi": 5790,
      "Ġvirtual": 5791,
      "revision": 5792,
      "Ġtransform": 5793,
      "Ġmonth": 5794,
      "ĠSE": 5795,
      "Ġthreading": 5796,
      "dns": 5797,
      "CRE": 5798,
      "egg": 5799,
      "ĠSource": 5800,
      "CONT": 5801,
      "Ġupload": 5802,
      "exe": 5803,
      "cesses": 5804,
      "Ġ?": 5805,
      "Ð¾": 5806,
      "abilities": 5807,
      "returns": 5808,
      "Ġunknown": 5809,
      "Row": 5810,
      "stub": 5811,
      "hi": 5812,
      "derer": 5813,
      "delay": 5814,
      "********************************": 5815,
      "pto": 5816,
      "ĠCommand": 5817,
      "Ġdepth": 5818,
      "compat": 5819,
      "umbnail": 5820,
      "Ġbits": 5821,
      "ĠModel": 5822,
      "Ġtz": 5823,
      "posed": 5824,
      "BASE": 5825,
      "Sequence": 5826,
      "Ġappropriate": 5827,
      "Ġconstraint": 5828,
      "Mis": 5829,
      "*(": 5830,
      "Description": 5831,
      "')[": 5832,
      "nsors": 5833,
      "utc": 5834,
      "Ġexact": 5835,
      "fully": 5836,
      "LA": 5837,
      "Lexer": 5838,
      "Ġrequested": 5839,
      "Ġsympy": 5840,
      "card": 5841,
      "tb": 5842,
      "ĠQu": 5843,
      "Ġspa": 5844,
      "Ġsamples": 5845,
      "deps": 5846,
      "Ġautomatically": 5847,
      "MAIN": 5848,
      "Ġokay": 5849,
      "Ġrelation": 5850,
      "Ġ19": 5851,
      "ĠRemove": 5852,
      "acl": 5853,
      "Ġpartner": 5854,
      "Ġexpi": 5855,
      "pages": 5856,
      "jor": 5857,
      "Pol": 5858,
      "listen": 5859,
      "tection": 5860,
      "Ġpur": 5861,
      "laces": 5862,
      "300": 5863,
      "rome": 5864,
      "ane": 5865,
      "Names": 5866,
      "Ġlocale": 5867,
      "Ġ(-": 5868,
      "dummy": 5869,
      "ĠSimple": 5870,
      "servers": 5871,
      "Ġdescriptor": 5872,
      "[:]": 5873,
      "Ġlineno": 5874,
      "subject": 5875,
      "templates": 5876,
      "ĠCOPYRIGHT": 5877,
      "ĠTensor": 5878,
      "Wh": 5879,
      "atibility": 5880,
      "effect": 5881,
      "043": 5882,
      "Ġfi": 5883,
      "Product": 5884,
      "gui": 5885,
      "ĠArgument": 5886,
      "ixel": 5887,
      "Ġbot": 5888,
      "tn": 5889,
      "Ġio": 5890,
      "sel": 5891,
      "mas": 5892,
      "Ġincluding": 5893,
      "Var": 5894,
      "steps": 5895,
      "LOW": 5896,
      "Ġcertificate": 5897,
      "Ġmedia": 5898,
      "cover": 5899,
      "fol": 5900,
      "CHAR": 5901,
      "eg": 5902,
      "Only": 5903,
      "executable": 5904,
      "duc": 5905,
      "Ġdeprecated": 5906,
      "ever": 5907,
      "ii": 5908,
      "Ġanaly": 5909,
      "cpp": 5910,
      "sin": 5911,
      "Unknown": 5912,
      "Ġnova": 5913,
      "Ġcontrib": 5914,
      "ands": 5915,
      "udo": 5916,
      "sorted": 5917,
      "===": 5918,
      "cut": 5919,
      "Ġchecks": 5920,
      "ables": 5921,
      "Ġhelper": 5922,
      "eds": 5923,
      "ĠRights": 5924,
      "ĠIOError": 5925,
      "Web": 5926,
      "Ġpickle": 5927,
      "ĠQtGui": 5928,
      "Reader": 5929,
      "ITS": 5930,
      "Ġprop": 5931,
      "Ġwords": 5932,
      "runner": 5933,
      "answer": 5934,
      "Ġimages": 5935,
      "Ġdependency": 5936,
      "quare": 5937,
      "closed": 5938,
      "Ġ80": 5939,
      "Handle": 5940,
      "vt": 5941,
      ")')": 5942,
      "SR": 5943,
      "Ġresources": 5944,
      "transaction": 5945,
      "siz": 5946,
      "bosity": 5947,
      "Ġouch": 5948,
      "Author": 5949,
      "services": 5950,
      "Ġsets": 5951,
      "existing": 5952,
      "Ġbehavior": 5953,
      "Ġdraw": 5954,
      "literals": 5955,
      "'%": 5956,
      "Ġexternal": 5957,
      "irc": 5958,
      "Nt": 5959,
      "Ġcharset": 5960,
      "=\"%": 5961,
      "ĠNULL": 5962,
      "yaml": 5963,
      "fixed": 5964,
      "Ġactually": 5965,
      "Ġyet": 5966,
      "localhost": 5967,
      "Feature": 5968,
      "team": 5969,
      "Ġcoordin": 5970,
      ">')": 5971,
      "ĠOnly": 5972,
      "kt": 5973,
      "ICAL": 5974,
      "ram": 5975,
      "Parameters": 5976,
      "Menu": 5977,
      "Ġdrop": 5978,
      "tyle": 5979,
      "ĠClo": 5980,
      "Ġorg": 5981,
      "Ġamount": 5982,
      "notes": 5983,
      "\"})": 5984,
      "ring": 5985,
      "race": 5986,
      "tables": 5987,
      "Ġfailure": 5988,
      "pay": 5989,
      "instances": 5990,
      "pred": 5991,
      "Ġhappen": 5992,
      "disable": 5993,
      "ONT": 5994,
      "}/": 5995,
      "setUp": 5996,
      "fixture": 5997,
      "ools": 5998,
      "ustome": 5999,
      "aaaa": 6000,
      "ĠWeb": 6001,
      "vn": 6002,
      "plt": 6003,
      "We": 6004,
      "Unable": 6005,
      "ĠThere": 6006,
      "Params": 6007,
      "Ġtransaction": 6008,
      "Account": 6009,
      "Ġcodecs": 6010,
      "lations": 6011,
      "CODE": 6012,
      "ENCE": 6013,
      "Ġslice": 6014,
      ";':": 6015,
      "Ġmail": 6016,
      "grad": 6017,
      "\"},": 6018,
      "110": 6019,
      "Ġsomething": 6020,
      "codes": 6021,
      "firm": 6022,
      "poly": 6023,
      "NING": 6024,
      "Ġrepresentation": 6025,
      "ĠInitial": 6026,
      "isdir": 6027,
      "aged": 6028,
      "Ġ2012": 6029,
      "ynchron": 6030,
      "setting": 6031,
      "Ġnested": 6032,
      "Ġdistance": 6033,
      "=[],": 6034,
      "ĠCF": 6035,
      "Ġchain": 6036,
      "Ġendpoint": 6037,
      "ĠWHERE": 6038,
      "Ġ*',": 6039,
      "Ġknown": 6040,
      "astype": 6041,
      "Ġmodified": 6042,
      "charset": 6043,
      "Operation": 6044,
      "isode": 6045,
      "vec": 6046,
      "ĠImage": 6047,
      "multiple": 6048,
      "Can": 6049,
      "Ġimg": 6050,
      "gu": 6051,
      "dispatch": 6052,
      "rive": 6053,
      ":`~": 6054,
      "Ġboto": 6055,
      "requency": 6056,
      "Ġparsing": 6057,
      "ĠExamples": 6058,
      "ĊĠĠĠĠĠĠĠĠĠĠĠĠĠĠĠĠĠĠĠĠĠĠĠĠĠĠĠĠĠĠĠĠĠĠĠĠĠĠĠĠĠĠĠĠĠĠĠ": 6059,
      "permissions": 6060,
      "ĠAnd": 6061,
      "deleted": 6062,
      "country": 6063,
      "ĠRuntimeError": 6064,
      "kit": 6065,
      "ln": 6066,
      "cel": 6067,
      "Ġgrid": 6068,
      "fiers": 6069,
      "Ġdele": 6070,
      ">>>": 6071,
      "PROC": 6072,
      "Ġast": 6073,
      "isinstance": 6074,
      "åı": 6075,
      "Ġiterable": 6076,
      "ĠParse": 6077,
      "alent": 6078,
      "Ġ#:": 6079,
      "ks": 6080,
      "flavor": 6081,
      "sistent": 6082,
      "subclass": 6083,
      "LY": 6084,
      "Ġfig": 6085,
      "elem": 6086,
      "AV": 6087,
      "stock": 6088,
      "PIPE": 6089,
      "Last": 6090,
      "dimen": 6091,
      "circ": 6092,
      "Ġtraining": 6093,
      "112": 6094,
      "getitem": 6095,
      "(\"-": 6096,
      "']\"}),": 6097,
      "DIRECT": 6098,
      "Ġ\")": 6099,
      "specific": 6100,
      "prob": 6101,
      "EP": 6102,
      "uess": 6103,
      "plain": 6104,
      "Top": 6105,
      "native": 6106,
      "Ġdecimal": 6107,
      "Ġcla": 6108,
      "ulator": 6109,
      "Ġ(_": 6110,
      "Ġfd": 6111,
      "ories": 6112,
      "|\\": 6113,
      "Ġcomplex": 6114,
      "(_(\"": 6115,
      "absolute": 6116,
      "Ġpackages": 6117,
      "Ġmp": 6118,
      "Use": 6119,
      "Ġiden": 6120,
      "ĠAlso": 6121,
      "Ġiterator": 6122,
      "bed": 6123,
      "ĠLE": 6124,
      "cipi": 6125,
      "oauth": 6126,
      "Ġallows": 6127,
      "Ġmd": 6128,
      "RI": 6129,
      "alth": 6130,
      "UND": 6131,
      "Ġlon": 6132,
      "eded": 6133,
      "contains": 6134,
      "Ġgit": 6135,
      "validation": 6136,
      "Ġbuilt": 6137,
      "java": 6138,
      "Password": 6139,
      "ĠUnicode": 6140,
      "\"\"\")": 6141,
      "ips": 6142,
      "LIN": 6143,
      "Ġrepresenting": 6144,
      "TF": 6145,
      "Ġ~": 6146,
      "player": 6147,
      "ĠDate": 6148,
      "Ġssl": 6149,
      "sitions": 6150,
      "AAAA": 6151,
      ");\\": 6152,
      "gi": 6153,
      "Speci": 6154,
      "Ġ18": 6155,
      "raction": 6156,
      "cipient": 6157,
      "Driver": 6158,
      "utdown": 6159,
      "Ġenviron": 6160,
      "orn": 6161,
      "ĠUpdate": 6162,
      "ĊĠĠĠĠĠĠĠĠĠĠĠĠĠĠĠĠĠĠĠĠĠĠĠĠĠĠĠĠĠĠĠĠĠĠĠĠĠĠĠĠĠĠĠĠ": 6163,
      "hn": 6164,
      "illa": 6165,
      "TA": 6166,
      "'[?": 6167,
      "Ġround": 6168,
      "Ġagainst": 6169,
      "Ġcore": 6170,
      "Ġ2013": 6171,
      "Def": 6172,
      "Msg": 6173,
      "LINE": 6174,
      "separ": 6175,
      "(':": 6176,
      "qs": 6177,
      "DIS": 6178,
      "gyp": 6179,
      "Ġmigrations": 6180,
      "Ġtakes": 6181,
      "apt": 6182,
      "ĠHttpResponse": 6183,
      "ĠAny": 6184,
      "baz": 6185,
      "ĠDEFAULT": 6186,
      "ĠSystem": 6187,
      "relative": 6188,
      "ILLIC": 6189,
      "quivalent": 6190,
      "YRILLIC": 6191,
      "pacity": 6192,
      "Ġelem": 6193,
      "formed": 6194,
      "SU": 6195,
      "ICT": 6196,
      "Ġrouter": 6197,
      "abstract": 6198,
      "placeholder": 6199,
      "Load": 6200,
      "ected": 6201,
      "Ġstrip": 6202,
      "Ġfilenames": 6203,
      "Ġunits": 6204,
      "strftime": 6205,
      "Ġord": 6206,
      "Suite": 6207,
      "ĠĠĠĠĠĠĠĠĠĠĠĠĠĠĠĠĠĠĠĠĠĠĠĠĠĠĠĠĠĠĠĠĠĠĠĠĠĠĠĠĠĠĠĠĠĠĠĠĠĠĠĠĠĠĠĠĠĠĠĠĠĠĠĠ": 6208,
      "Cho": 6209,
      "citation": 6210,
      "Ġtyp": 6211,
      "Ġsummary": 6212,
      "Args": 6213,
      "sian": 6214,
      "tt": 6215,
      "Width": 6216,
      "/')": 6217,
      "ĠRaises": 6218,
      "ĠOut": 6219,
      "Ġlinks": 6220,
      "variance": 6221,
      "Ġatom": 6222,
      "comments": 6223,
      "teps": 6224,
      "IST": 6225,
      "pad": 6226,
      "quences": 6227,
      "asn": 6228,
      "\"]:": 6229,
      "Ġcat": 6230,
      "Directory": 6231,
      "nsure": 6232,
      "Ġgoogle": 6233,
      "versions": 6234,
      "Ġcredentials": 6235,
      "teri": 6236,
      "cip": 6237,
      "android": 6238,
      "ĠCYRILLIC": 6239,
      "Ġdimension": 6240,
      "Normal": 6241,
      "statement": 6242,
      "JSON": 6243,
      ">,": 6244,
      "ROL": 6245,
      "Ġhostname": 6246,
      "Ġperiod": 6247,
      "Ġ()": 6248,
      "ĠDB": 6249,
      "Ġcert": 6250,
      "share": 6251,
      "Ġinterval": 6252,
      "packet": 6253,
      "TextField": 6254,
      "Elements": 6255,
      "']\",": 6256,
      "Hello": 6257,
      "Ġswitch": 6258,
      "eError": 6259,
      "high": 6260,
      "Writer": 6261,
      "ĠBE": 6262,
      "ĠLoc": 6263,
      "tries": 6264,
      "BC": 6265,
      "ĠTrans": 6266,
      "imer": 6267,
      "dian": 6268,
      "Ġmenu": 6269,
      "=[\"": 6270,
      "hr": 6271,
      "Ġinside": 6272,
      "Ġpadding": 6273,
      "ressions": 6274,
      "Ġedge": 6275,
      "Ġsci": 6276,
      "Ġcv": 6277,
      "vance": 6278,
      "ational": 6279,
      "locate": 6280,
      "izard": 6281,
      "scan": 6282,
      "allel": 6283,
      "heel": 6284,
      "Ġmaterial": 6285,
      "Ðµ": 6286,
      "xF": 6287,
      "ĠMeta": 6288,
      "ĠBSD": 6289,
      "Ġsaved": 6290,
      "Ġ'=',": 6291,
      "isfile": 6292,
      "Stop": 6293,
      "HA": 6294,
      "Import": 6295,
      "Ġsur": 6296,
      "edi": 6297,
      "Ġhass": 6298,
      "Ġauthentication": 6299,
      "Nodes": 6300,
      "Te": 6301,
      "Ġsyntax": 6302,
      "Ġsubnet": 6303,
      "blue": 6304,
      "STATUS": 6305,
      "periment": 6306,
      "/\\": 6307,
      "Ġdot": 6308,
      "ocker": 6309,
      "rv": 6310,
      "clone": 6311,
      "cremental": 6312,
      "Ġquote": 6313,
      "together": 6314,
      "izers": 6315,
      "Ġnorm": 6316,
      "Ġfixed": 6317,
      "Ġhex": 6318,
      "ĊĊĉĉ": 6319,
      ")\")": 6320,
      "formats": 6321,
      "rain": 6322,
      "wx": 6323,
      "channels": 6324,
      "Ġcy": 6325,
      "Ġmade": 6326,
      "sal": 6327,
      "Ġcached": 6328,
      "stit": 6329,
      "Ġorigin": 6330,
      "/*": 6331,
      "TG": 6332,
      "({\"": 6333,
      "members": 6334,
      "Ġ40": 6335,
      "cost": 6336,
      "Ġitself": 6337,
      "processing": 6338,
      "Ġlang": 6339,
      "Keys": 6340,
      "dk": 6341,
      "Ġpairs": 6342,
      "ĊĠĠĠĠĠĠĠĠĠĠĠĠĠĠĠĠĠĠĠĠĠĠĠĠĠĠĠĠĠĠĠĠĠĠĠĠĠĠĠĠĠĠĠĠĠ": 6343,
      "ustomer": 6344,
      "ĠDecimal": 6345,
      "Ġtuples": 6346,
      "Ġseed": 6347,
      "SUB": 6348,
      "ene": 6349,
      "esser": 6350,
      "PREFIX": 6351,
      "previous": 6352,
      "zA": 6353,
      "locator": 6354,
      "decimal": 6355,
      "doctype": 6356,
      "Ġsklearn": 6357,
      "Ġcalling": 6358,
      "Ġarchive": 6359,
      "ras": 6360,
      "Const": 6361,
      "Has": 6362,
      "Ġstates": 6363,
      "Ġds": 6364,
      "Ġcompiler": 6365,
      "Ġimplemented": 6366,
      "loor": 6367,
      "ulk": 6368,
      "Ġflow": 6369,
      "Ġmetric": 6370,
      "lv": 6371,
      "Timeout": 6372,
      "Arg": 6373,
      "lb": 6374,
      "Ġrepe": 6375,
      "nested": 6376,
      "Ġqs": 6377,
      "ĠInvalid": 6378,
      "UI": 6379,
      "Ġserialized": 6380,
      "Flags": 6381,
      "Extension": 6382,
      "Serialize": 6383,
      "Ġaut": 6384,
      "Ġanswer": 6385,
      "!!!!": 6386,
      "Ġdesired": 6387,
      "NE": 6388,
      "NC": 6389,
      "252": 6390,
      "Ġsecurity": 6391,
      "ĠCONF": 6392,
      ")+": 6393,
      "Ġdat": 6394,
      "lazy": 6395,
      "agtail": 6396,
      "Offset": 6397,
      "ysql": 6398,
      "href": 6399,
      "laimer": 6400,
      "ĠLesser": 6401,
      "axes": 6402,
      "tit": 6403,
      "archive": 6404,
      "Root": 6405,
      "cancel": 6406,
      "readline": 6407,
      "Storage": 6408,
      "disc": 6409,
      "devices": 6410,
      "Ġvalidation": 6411,
      "('_": 6412,
      "cn": 6413,
      "Ġsimp": 6414,
      "mes": 6415,
      "+_": 6416,
      "Url": 6417,
      "manifest": 6418,
      "week": 6419,
      "Ġqual": 6420,
      "Ġinterpre": 6421,
      ")**": 6422,
      "ĠBe": 6423,
      "StringIO": 6424,
      "Ġcreating": 6425,
      "Ġscreen": 6426,
      "embed": 6427,
      "dm": 6428,
      "scripts": 6429,
      "ĠMessage": 6430,
      "ĠKeyword": 6431,
      "Lock": 6432,
      "optim": 6433,
      "Ġfactory": 6434,
      "conver": 6435,
      "IBUTORS": 6436,
      "Builder": 6437,
      "Ġ'*": 6438,
      "Exist": 6439,
      "ĠOSError": 6440,
      "Ġembed": 6441,
      "live": 6442,
      "Matrix": 6443,
      "precation": 6444,
      "ĠMoved": 6445,
      "INCLUDING": 6446,
      "compress": 6447,
      "'',": 6448,
      "Ġworking": 6449,
      "Ġdisclaimer": 6450,
      "Ġexecution": 6451,
      "findall": 6452,
      "micro": 6453,
      "Ġpd": 6454,
      "pending": 6455,
      "Datum": 6456,
      "rac": 6457,
      "deg": 6458,
      "processor": 6459,
      "inline": 6460,
      "ĠEVENT": 6461,
      "problem": 6462,
      "glob": 6463,
      "Volume": 6464,
      "Ġlow": 6465,
      "Ġfuture": 6466,
      "ATOR": 6467,
      "Ġ'\\\\": 6468,
      "bundle": 6469,
      "Mark": 6470,
      "omial": 6471,
      "configure": 6472,
      "etail": 6473,
      "Ġstudent": 6474,
      "antity": 6475,
      "Enable": 6476,
      "gpu": 6477,
      "istribution": 6478,
      "hint": 6479,
      "mesh": 6480,
      "geom": 6481,
      "Ġgl": 6482,
      "ĠCONTRIBUTORS": 6483,
      "Ġpartition": 6484,
      "Ġinspect": 6485,
      "inherit": 6486,
      "GB": 6487,
      "Ġrec": 6488,
      "------------------------------------------------": 6489,
      "compatible": 6490,
      "izes": 6491,
      "tabstop": 6492,
      "origin": 6493,
      "Ø§": 6494,
      "TP": 6495,
      "ĠTests": 6496,
      "Ġpages": 6497,
      "initializer": 6498,
      "Ġproc": 6499,
      "Ð¸": 6500,
      "rift": 6501,
      "records": 6502,
      "Ġrxn": 6503,
      "afe": 6504,
      "nor": 6505,
      "Ġinner": 6506,
      "cnt": 6507,
      "wsgi": 6508,
      "ĠIPv": 6509,
      "otes": 6510,
      "Ġloaded": 6511,
      "Reaction": 6512,
      "Ġsec": 6513,
      "actual": 6514,
      "ĠBY": 6515,
      "ĠBuild": 6516,
      "Work": 6517,
      "decor": 6518,
      "Ġbug": 6519,
      "endpoint": 6520,
      "DAT": 6521,
      "Ġ''.": 6522,
      "ĠCall": 6523,
      "WR": 6524,
      "cwd": 6525,
      "when": 6526,
      "Ġtasks": 6527,
      "lies": 6528,
      "ĠAuthor": 6529,
      "Temp": 6530,
      "Could": 6531,
      "je": 6532,
      "LD": 6533,
      "Ġraises": 6534,
      "Ġfactor": 6535,
      ":',": 6536,
      "requires": 6537,
      "']]": 6538,
      "8613": 6539,
      "Ġcompare": 6540,
      "allowed": 6541,
      "2010": 6542,
      "ROUP": 6543,
      "Ġexpand": 6544,
      "Ġbuilder": 6545,
      "Ġ23": 6546,
      "ĠTType": 6547,
      "Ġnothing": 6548,
      "enchmark": 6549,
      "Values": 6550,
      "ĠInter": 6551,
      "mut": 6552,
      "mu": 6553,
      "Ġattach": 6554,
      "Ġcompile": 6555,
      "urations": 6556,
      "132": 6557,
      "ru": 6558,
      "inc": 6559,
      "comb": 6560,
      "ĠVi": 6561,
      "asset": 6562,
      "clusive": 6563,
      "Post": 6564,
      "########################": 6565,
      "ĠElement": 6566,
      "Ġpad": 6567,
      "168": 6568,
      "ĠPOINTER": 6569,
      "ĠAC": 6570,
      "Ġprovides": 6571,
      "Ġarrays": 6572,
      "agic": 6573,
      "chars": 6574,
      "]).": 6575,
      "509": 6576,
      "metaclass": 6577,
      "ĠLEFT": 6578,
      "Results": 6579,
      "Clean": 6580,
      "phy": 6581,
      "blob": 6582,
      "Ip": 6583,
      "Cal": 6584,
      "ygon": 6585,
      "Does": 6586,
      "æľ": 6587,
      "MAN": 6588,
      "Enabled": 6589,
      "Ġnor": 6590,
      "Find": 6591,
      "Location": 6592,
      "AIL": 6593,
      "ceiver": 6594,
      "prog": 6595,
      "ĠIs": 6596,
      "DESCRIPT": 6597,
      ">%": 6598,
      "worker": 6599,
      "Comple": 6600,
      "ĠSome": 6601,
      "Ġdirectories": 6602,
      "wb": 6603,
      "visible": 6604,
      "Ġms": 6605,
      "family": 6606,
      "ocab": 6607,
      "Middleware": 6608,
      "Style": 6609,
      "UTF": 6610,
      "\"][\"": 6611,
      "Cannot": 6612,
      "SERVER": 6613,
      "console": 6614,
      "requests": 6615,
      "]'": 6616,
      "Ġstarting": 6617,
      "ater": 6618,
      "Ġ1024": 6619,
      "vie": 6620,
      "Rate": 6621,
      "utors": 6622,
      "Ġindicate": 6623,
      "ĠCH": 6624,
      "mox": 6625,
      "stdin": 6626,
      "changes": 6627,
      "ticular": 6628,
      "$(": 6629,
      "ĠOtherwise": 6630,
      "Ġagent": 6631,
      "ĠSign": 6632,
      "Ġacti": 6633,
      "Ġrate": 6634,
      "refresh": 6635,
      "Binary": 6636,
      "sib": 6637,
      "USG": 6638,
      "unity": 6639,
      "attrib": 6640,
      "{\"": 6641,
      "ĠAuthors": 6642,
      "pend": 6643,
      "pix": 6644,
      "subscription": 6645,
      "ĠContent": 6646,
      "Ġdbse": 6647,
      "ctive": 6648,
      "mg": 6649,
      "FIEL": 6650,
      "Av": 6651,
      "Parent": 6652,
      "pur": 6653,
      "ĠOper": 6654,
      "ReactionDatum": 6655,
      "Ġless": 6656,
      "Ġcorrectly": 6657,
      "Ġdbinstance": 6658,
      "ĠChar": 6659,
      "Ġmime": 6660,
      "Ġprocessing": 6661,
      "selector": 6662,
      "Provider": 6663,
      "special": 6664,
      "ably": 6665,
      "plus": 6666,
      "deprecated": 6667,
      "ĠFind": 6668,
      "URCE": 6669,
      "lying": 6670,
      "Mon": 6671,
      "partial": 6672,
      "111": 6673,
      "Ġdtypes": 6674,
      "Ġpush": 6675,
      "linear": 6676,
      "numeric": 6677,
      "Phy": 6678,
      "Encoder": 6679,
      "iteral": 6680,
      "Ġ'+": 6681,
      "Ġpi": 6682,
      "600": 6683,
      "ĊĠĠĠĠĠĠĠĠĠĠĠĠĠĠĠĠĠĠĠĠĠĠĠĠĠĠĠĠĠĠĠĠĠĠĠĠĠĠĠĠĠĠĠĠĠĠĠĠĠĠĠĠĠĠĠĠĠĠĠĠĠĠĠĠ": 6684,
      "UID": 6685,
      "204": 6686,
      "/\"": 6687,
      "forward": 6688,
      "STATE": 6689,
      "56789": 6690,
      "keyword": 6691,
      "tence": 6692,
      "priority": 6693,
      "Job": 6694,
      "Ġvim": 6695,
      "Ġprogress": 6696,
      ".*?": 6697,
      "Ġsymbols": 6698,
      "Exit": 6699,
      "Schema": 6700,
      "Ġworld": 6701,
      "Ġconverted": 6702,
      "chase": 6703,
      "'m": 6704,
      "Ġdetermine": 6705,
      "diag": 6706,
      "Ġterm": 6707,
      "120": 6708,
      "Ġgradient": 6709,
      "while": 6710,
      "plotlib": 6711,
      "ality": 6712,
      "Remote": 6713,
      "Ġts": 6714,
      "Ġdns": 6715,
      "Ġtables": 6716,
      "lists": 6717,
      "800": 6718,
      "Ġbook": 6719,
      "voke": 6720,
      "geo": 6721,
      "ĊĉĠĠĠ": 6722,
      "(_('": 6723,
      "hostFtdc": 6724,
      "ctxt": 6725,
      "prepare": 6726,
      "uda": 6727,
      "Ġqui": 6728,
      "loyee": 6729,
      "Ġ'[": 6730,
      "alg": 6731,
      "alchemy": 6732,
      "OFP": 6733,
      "ilar": 6734,
      "rstrip": 6735,
      "ĠDAMAGES": 6736,
      "vc": 6737,
      "ana": 6738,
      "(\"--": 6739,
      "house": 6740,
      "DV": 6741,
      "matches": 6742,
      "checker": 6743,
      "machine": 6744,
      "Decimal": 6745,
      "WOR": 6746,
      "acter": 6747,
      "Ġfname": 6748,
      "ToMany": 6749,
      "props": 6750,
      "parsed": 6751,
      "Ġformats": 6752,
      "readonly": 6753,
      "Ġ###": 6754,
      "scroll": 6755,
      "Main": 6756,
      "(\"<": 6757,
      "ERP": 6758,
      "metrics": 6759,
      "dash": 6760,
      "notification": 6761,
      "Ġbuiltin": 6762,
      "ĠEvent": 6763,
      "rollment": 6764,
      "nova": 6765,
      "ĠtearDown": 6766,
      "generic": 6767,
      "Ġleg": 6768,
      ")}": 6769,
      "Ġparticular": 6770,
      "Ġsock": 6771,
      "3333": 6772,
      "BE": 6773,
      "'(": 6774,
      "Ġseen": 6775,
      "projects": 6776,
      "which": 6777,
      "ĠUN": 6778,
      "Ġseries": 6779,
      "REQUEST": 6780,
      "Ġapplied": 6781,
      "Failure": 6782,
      ":\",": 6783,
      "strument": 6784,
      "104": 6785,
      "Ġcomments": 6786,
      "rigin": 6787,
      "based": 6788,
      "area": 6789,
      "COMP": 6790,
      "Ġprior": 6791,
      "ient": 6792,
      "-+": 6793,
      "recur": 6794,
      "Send": 6795,
      "att": 6796,
      "wiki": 6797,
      "protected": 6798,
      "gmail": 6799,
      "Ġndarray": 6800,
      "ĠFunction": 6801,
      "Ġvars": 6802,
      "=='": 6803,
      "Ġtrigger": 6804,
      "Conn": 6805,
      "epcopy": 6806,
      "standard": 6807,
      "\"%": 6808,
      ":-": 6809,
      "ĠClient": 6810,
      "usters": 6811,
      "æĺ": 6812,
      "ateway": 6813,
      "notify": 6814,
      "program": 6815,
      "Ret": 6816,
      "uffle": 6817,
      "Ġaround": 6818,
      "ĠComment": 6819,
      "ĠSup": 6820,
      "watch": 6821,
      "Ġrev": 6822,
      "ĠRedistributions": 6823,
      "Show": 6824,
      "ntaxError": 6825,
      "Ġbl": 6826,
      "ĠWhy": 6827,
      "'+": 6828,
      "Ġflat": 6829,
      "GetTypeId": 6830,
      "Geometry": 6831,
      "ĠAle": 6832,
      "precision": 6833,
      "}'": 6834,
      "Ġwrong": 6835,
      "svn": 6836,
      "ĠPROVID": 6837,
      "gz": 6838,
      "etc": 6839,
      "ells": 6840,
      "Ġsupplied": 6841,
      "rable": 6842,
      "poll": 6843,
      "Ġmachine": 6844,
      "Basic": 6845,
      "foreign": 6846,
      "orph": 6847,
      "ĠRo": 6848,
      "VM": 6849,
      "ective": 6850,
      "counts": 6851,
      "skb": 6852,
      "ILD": 6853,
      "oring": 6854,
      "ĠCan": 6855,
      "bg": 6856,
      "ev": 6857,
      "Ġviews": 6858,
      "MPLATE": 6859,
      "TraceSource": 6860,
      "pagation": 6861,
      "cogn": 6862,
      "Ġreadonly": 6863,
      "Generate": 6864,
      "xi": 6865,
      "Ġcopies": 6866,
      "ced": 6867,
      "hand": 6868,
      "Ġengine": 6869,
      "diffe": 6870,
      "Ġtimedelta": 6871,
      "rx": 6872,
      "XXXX": 6873,
      "direction": 6874,
      "Rep": 6875,
      "Ġclosed": 6876,
      "Ġ37": 6877,
      "more": 6878,
      "ĠMulti": 6879,
      "'[?]',": 6880,
      "destination": 6881,
      "IV": 6882,
      "rd": 6883,
      "ratio": 6884,
      "CLASS": 6885,
      "214": 6886,
      "Ġvisibility": 6887,
      "Title": 6888,
      "125": 6889,
      "Ġouter": 6890,
      "Ġ500": 6891,
      "predict": 6892,
      "translation": 6893,
      "traceback": 6894,
      "Ġsn": 6895,
      "tol": 6896,
      "imate": 6897,
      "aut": 6898,
      "Ġ\"\")": 6899,
      "Ġ2015": 6900,
      "ĊĠĠĠĠĠĠĠĠĠĠĠĠĠĠĠĠĠĠĠĠĠĠĠĠĠĠĠĠĠĠĠĠĠĠĠĠĠĠĠĠĠĠĠĠĠĠ": 6901,
      "Ġbackup": 6902,
      "PU": 6903,
      "Ġcm": 6904,
      "ĊĊĊĊ": 6905,
      "Contains": 6906,
      "Ġacc": 6907,
      "tract": 6908,
      "PASS": 6909,
      "ital": 6910,
      "Cons": 6911,
      "ĠPath": 6912,
      "covery": 6913,
      "ucce": 6914,
      "Ġrank": 6915,
      "lst": 6916,
      "Ġscalar": 6917,
      "Ġfails": 6918,
      "ETHER": 6919,
      "jobs": 6920,
      "Power": 6921,
      "],[": 6922,
      "äº": 6923,
      "ĠInput": 6924,
      "Ġhour": 6925,
      "assertIsInstance": 6926,
      "Ġ2014": 6927,
      "Ġ22": 6928,
      "edges": 6929,
      "NECT": 6930,
      "ĠINCLUDING": 6931,
      "Non": 6932,
      "deli": 6933,
      "article": 6934,
      "ĠObject": 6935,
      "ario": 6936,
      "istic": 6937,
      "Ġlisten": 6938,
      "Transform": 6939,
      "Queryset": 6940,
      "Ġreferences": 6941,
      "credentials": 6942,
      "tended": 6943,
      "ĠNOTE": 6944,
      "KEN": 6945,
      "Ġnegative": 6946,
      "Ġconnections": 6947,
      "Tri": 6948,
      "\"',": 6949,
      "Ġfrappe": 6950,
      "Positive": 6951,
      "Ġincludes": 6952,
      "ĠAnsibleModule": 6953,
      "Ġgood": 6954,
      "Ġnotification": 6955,
      "zilla": 6956,
      "ĠTable": 6957,
      "continue": 6958,
      "Sum": 6959,
      "lict": 6960,
      "PACK": 6961,
      "threads": 6962,
      "MODE": 6963,
      "Expected": 6964,
      "2013": 6965,
      "Ġcalcul": 6966,
      "TAG": 6967,
      "FFFF": 6968,
      "xtures": 6969,
      "Changed": 6970,
      "phase": 6971,
      "lev": 6972,
      "8615": 6973,
      "Ġrevision": 6974,
      "Ġclf": 6975,
      "structure": 6976,
      ".+": 6977,
      "ISING": 6978,
      "Course": 6979,
      "Ġdisabled": 6980,
      "Pos": 6981,
      "Ġconstruct": 6982,
      "resolve": 6983,
      "1111": 6984,
      "Ali": 6985,
      "Font": 6986,
      "rupt": 6987,
      "ĠSP": 6988,
      "ATED": 6989,
      "ĠWrite": 6990,
      "xE": 6991,
      "ook": 6992,
      "tv": 6993,
      "Del": 6994,
      "IGIT": 6995,
      "109": 6996,
      "6666": 6997,
      "Ġalign": 6998,
      "certificate": 6999,
      "ĠSHALL": 7000,
      "slash": 7001,
      "Ġreader": 7002,
      "Ġanything": 7003,
      "Component": 7004,
      "ĠLe": 7005,
      "BitField": 7006,
      "car": 7007,
      "Ġupper": 7008,
      "Ġtemplates": 7009,
      "best": 7010,
      "disabled": 7011,
      "Optional": 7012,
      "CUR": 7013,
      "DELETE": 7014,
      "fast": 7015,
      "Ġicon": 7016,
      "ĠSER": 7017,
      "staff": 7018,
      "gateway": 7019,
      "ĠItem": 7020,
      "Member": 7021,
      "digits": 7022,
      "[\\": 7023,
      "ĠLIABLE": 7024,
      "Global": 7025,
      "Ġscipy": 7026,
      "LC": 7027,
      "anded": 7028,
      "Ġupdates": 7029,
      "ĠLine": 7030,
      "Ġlarge": 7031,
      "Ġannot": 7032,
      "scalar": 7033,
      "TYP": 7034,
      "Email": 7035,
      "fun": 7036,
      "Ġdue": 7037,
      "ĠÐ": 7038,
      "Ġdescri": 7039,
      "ICES": 7040,
      "VALUE": 7041,
      "Ġbrowser": 7042,
      "ĠARISING": 7043,
      "?',": 7044,
      "percent": 7045,
      "ĠComm": 7046,
      "aves": 7047,
      "ĠEach": 7048,
      "ĠPROVIDED": 7049,
      "chor": 7050,
      "want": 7051,
      "ĠRIGHT": 7052,
      "ĠNew": 7053,
      "Ġlayout": 7054,
      "Ġcounter": 7055,
      "ĠTORT": 7056,
      "Ġhosts": 7057,
      "')))": 7058,
      "([^": 7059,
      "Ġwriter": 7060,
      "ĠWHETHER": 7061,
      "Ġec": 7062,
      "}\"": 7063,
      "olved": 7064,
      "Ġdistutils": 7065,
      "ĠCONTRACT": 7066,
      "journal": 7067,
      "zed": 7068,
      "assertAllEqual": 7069,
      "Ġtb": 7070,
      "Redirect": 7071,
      "QuerysetEqual": 7072,
      "pm": 7073,
      "Ġpower": 7074,
      "Tuple": 7075,
      "Ġtod": 7076,
      "igration": 7077,
      "Ġnever": 7078,
      "FS": 7079,
      "YY": 7080,
      "ierarch": 7081,
      "Ġ/>": 7082,
      "ĠSta": 7083,
      "Debug": 7084,
      "ology": 7085,
      "Ġregistry": 7086,
      "Unicode": 7087,
      "flat": 7088,
      "AMP": 7089,
      "Ġfo": 7090,
      "roken": 7091,
      "Ġ).": 7092,
      "syntax": 7093,
      "Ġå": 7094,
      "WISE": 7095,
      "qa": 7096,
      "Ġurlparse": 7097,
      "ales": 7098,
      "Register": 7099,
      "Ġmodification": 7100,
      "sca": 7101,
      "gf": 7102,
      "Ġlex": 7103,
      "Ġfmt": 7104,
      "Ġ31": 7105,
      "dependent": 7106,
      "scores": 7107,
      "assertQuerysetEqual": 7108,
      "agraph": 7109,
      "ĠNE": 7110,
      "BACK": 7111,
      "collect": 7112,
      "connected": 7113,
      "Ġreduce": 7114,
      "Ġtran": 7115,
      "Ġbasestring": 7116,
      "Ġcs": 7117,
      "ergy": 7118,
      "119": 7119,
      "colors": 7120,
      "APP": 7121,
      "amera": 7122,
      "ORIZ": 7123,
      "Ġsteps": 7124,
      "NUM": 7125,
      "ĠDATA": 7126,
      "rica": 7127,
      "ordering": 7128,
      "Ġ2010": 7129,
      "ouse": 7130,
      "Ġderived": 7131,
      "ĠProcess": 7132,
      "isto": 7133,
      "COLOR": 7134,
      "ĠJo": 7135,
      "gd": 7136,
      "Ġtimezone": 7137,
      "under": 7138,
      "Children": 7139,
      "ANCE": 7140,
      "Ġchoice": 7141,
      "Ġliter": 7142,
      "Ġcreation": 7143,
      "Attr": 7144,
      "timezone": 7145,
      "ĠServer": 7146,
      "First": 7147,
      "Ġpixel": 7148,
      "Ġaddresses": 7149,
      "getvalue": 7150,
      "Ġprecision": 7151,
      "ToManyField": 7152,
      "mapper": 7153,
      "retry": 7154,
      "199": 7155,
      "INGLE": 7156,
      "monitor": 7157,
      "vey": 7158,
      "tached": 7159,
      "gnore": 7160,
      "Route": 7161,
      "unlink": 7162,
      "Ġcompatibility": 7163,
      "agicMock": 7164,
      "erred": 7165,
      ">\",": 7166,
      "Ġ^": 7167,
      "ĠEXPRESS": 7168,
      "tend": 7169,
      "NA": 7170,
      "'ll": 7171,
      "tile": 7172,
      "ĠMark": 7173,
      "onical": 7174,
      "vlan": 7175,
      "achine": 7176,
      "CEPT": 7177,
      "NN": 7178,
      "Ġnone": 7179,
      "cial": 7180,
      "Sc": 7181,
      "Ġaccording": 7182,
      "Ġthreads": 7183,
      "BR": 7184,
      "draft": 7185,
      "Ġmetrics": 7186,
      "IBLE": 7187,
      "Ġhy": 7188,
      "scall": 7189,
      "ĠLoad": 7190,
      "same": 7191,
      "Ġgr": 7192,
      "DoesNot": 7193,
      "avi": 7194,
      "mble": 7195,
      "dialog": 7196,
      "ENSM": 7197,
      "Ġask": 7198,
      "anis": 7199,
      "Single": 7200,
      "ighbor": 7201,
      "ENSMUSG": 7202,
      "cepted": 7203,
      "protobuf": 7204,
      "ĠĊĠĠĠĠĠĠĠĠĠĠĠ": 7205,
      "categor": 7206,
      "follow": 7207,
      "\"\"\",": 7208,
      "Ġflask": 7209,
      "Ġ\"+": 7210,
      "schedule": 7211,
      "inventory": 7212,
      "Ġrestri": 7213,
      "124": 7214,
      "ĠUP": 7215,
      ")-": 7216,
      "POINT": 7217,
      "filepath": 7218,
      "Lim": 7219,
      "ĠNetwork": 7220,
      "Article": 7221,
      "hort": 7222,
      "Custom": 7223,
      "ufe": 7224,
      "ĠInteger": 7225,
      "inux": 7226,
      "threshold": 7227,
      "shake": 7228,
      "ascript": 7229,
      "\"\")": 7230,
      "aws": 7231,
      "ĠResponse": 7232,
      "Ġcompany": 7233,
      "lyph": 7234,
      "ĠAlexa": 7235,
      "PECI": 7236,
      "destroy": 7237,
      "Shape": 7238,
      "Ġworker": 7239,
      "ĠCA": 7240,
      "small": 7241,
      "ĠOutput": 7242,
      "Database": 7243,
      "Ġ\":": 7244,
      "trl": 7245,
      "Ġcpp": 7246,
      "ible": 7247,
      "Agg": 7248,
      "Ġtools": 7249,
      "Go": 7250,
      "Ġexamples": 7251,
      "Ġhandling": 7252,
      "dense": 7253,
      "trip": 7254,
      "ĠExt": 7255,
      "Ġdevices": 7256,
      "slots": 7257,
      "PARAM": 7258,
      "ĠOver": 7259,
      "assertAllClose": 7260,
      "tire": 7261,
      "Ġindic": 7262,
      "129": 7263,
      "Ġregistered": 7264,
      "imal": 7265,
      "gres": 7266,
      "Ġselection": 7267,
      "Ġpretty": 7268,
      "Ġretry": 7269,
      "logs": 7270,
      "Almost": 7271,
      "]\\": 7272,
      "specs": 7273,
      "usted": 7274,
      "submit": 7275,
      "isual": 7276,
      "irq": 7277,
      "NET": 7278,
      "Big": 7279,
      "2014": 7280,
      "Double": 7281,
      "Ġbig": 7282,
      "Ġdummy": 7283,
      "sertionError": 7284,
      "ENTRY": 7285,
      "Ġexecutable": 7286,
      "Ġ([": 7287,
      "ically": 7288,
      "Ġclone": 7289,
      "ĠProject": 7290,
      "xis": 7291,
      "processed": 7292,
      "}',": 7293,
      "Ġ28": 7294,
      "fini": 7295,
      "roker": 7296,
      "serv": 7297,
      "ĠDIGIT": 7298,
      "Serializer": 7299,
      "vl": 7300,
      "tives": 7301,
      "Entity": 7302,
      "();": 7303,
      "Fields": 7304,
      "Ġpip": 7305,
      "Convert": 7306,
      "copyright": 7307,
      "TL": 7308,
      "ĠOne": 7309,
      "assistant": 7310,
      "HEADER": 7311,
      "NV": 7312,
      "ification": 7313,
      "por": 7314,
      "avascript": 7315,
      "Total": 7316,
      "Ġpositive": 7317,
      "ĊĊĊĠĠĠĠĠĠĠ": 7318,
      "ĠCur": 7319,
      "105": 7320,
      "INPUT": 7321,
      "pairs": 7322,
      "Ġcomponents": 7323,
      "Ġ'/'": 7324,
      "gamma": 7325,
      "SEQU": 7326,
      "exact": 7327,
      "Ġwagtail": 7328,
      "ĠRFC": 7329,
      "dif": 7330,
      "AlmostEqual": 7331,
      "377": 7332,
      "ĠFIX": 7333,
      "ĠOTHERWISE": 7334,
      "NAM": 7335,
      "ISO": 7336,
      "ĠResource": 7337,
      "jar": 7338,
      "Ġdelay": 7339,
      "Ġ\"(": 7340,
      "RET": 7341,
      "COUN": 7342,
      "nx": 7343,
      "Person": 7344,
      "Ġstride": 7345,
      "dele": 7346,
      "Ġps": 7347,
      "_{": 7348,
      "Ġ29": 7349,
      "Qgs": 7350,
      "ka": 7351,
      "Ġtm": 7352,
      "Ġequivalent": 7353,
      "too": 7354,
      "Ġcoef": 7355,
      "ĠNow": 7356,
      "106": 7357,
      "balance": 7358,
      "gramm": 7359,
      "website": 7360,
      "sensitive": 7361,
      "117": 7362,
      "START": 7363,
      "CII": 7364,
      "Ġdimensions": 7365,
      "orizont": 7366,
      "epoch": 7367,
      "Ġtestdir": 7368,
      "Ġ\"[": 7369,
      "Ġ\"{{": 7370,
      "negative": 7371,
      "ACC": 7372,
      "Ġduration": 7373,
      "listdir": 7374,
      "Ġsep": 7375,
      "mous": 7376,
      "Ġfast": 7377,
      "DOMAIN": 7378,
      "pipeline": 7379,
      "SUP": 7380,
      "Ġunsigned": 7381,
      "Loop": 7382,
      "evaluate": 7383,
      "Copyright": 7384,
      "')]],": 7385,
      "+',": 7386,
      "RED": 7387,
      "MESS": 7388,
      "Ġproduce": 7389,
      "Ġtwisted": 7390,
      "ags": 7391,
      "Ġcsv": 7392,
      "ĠTEST": 7393,
      "Api": 7394,
      "without": 7395,
      "Ġseparate": 7396,
      "deredDict": 7397,
      "ighbors": 7398,
      "Ġconsi": 7399,
      "DoesNotExist": 7400,
      "lid": 7401,
      "ĠSUP": 7402,
      "Ġlin": 7403,
      "ather": 7404,
      "LOAD": 7405,
      "dag": 7406,
      "aging": 7407,
      "ĠCONT": 7408,
      "2012": 7409,
      "latest": 7410,
      "alf": 7411,
      "Items": 7412,
      "ÑĤ": 7413,
      "timer": 7414,
      "ufa": 7415,
      "getter": 7416,
      "Ġpartial": 7417,
      "assertNotEqual": 7418,
      "romium": 7419,
      "eng": 7420,
      "acters": 7421,
      "Role": 7422,
      "addresses": 7423,
      "Library": 7424,
      "Ġsmall": 7425,
      "Extra": 7426,
      "Ġattempt": 7427,
      "VS": 7428,
      "Ġcc": 7429,
      "dimension": 7430,
      "YP": 7431,
      "002": 7432,
      "TEMPLATE": 7433,
      "Ġcb": 7434,
      "patterns": 7435,
      "interfaces": 7436,
      "Ġvery": 7437,
      "DT": 7438,
      "ned": 7439,
      "REEK": 7440,
      "ages": 7441,
      "LANG": 7442,
      "Note": 7443,
      "Ġunless": 7444,
      "Ġversionadded": 7445,
      "Runner": 7446,
      "Ġwhose": 7447,
      "ĠDict": 7448,
      "Ġfs": 7449,
      "symbols": 7450,
      "background": 7451,
      "Ġsqrt": 7452,
      "CUMENT": 7453,
      "endor": 7454,
      "ike": 7455,
      "claration": 7456,
      "Report": 7457,
      "EDI": 7458,
      "PROTO": 7459,
      "versed": 7460,
      "aps": 7461,
      "gration": 7462,
      "definition": 7463,
      "Ġpriority": 7464,
      "Func": 7465,
      "IDENT": 7466,
      "Sim": 7467,
      "Ġappear": 7468,
      "Modi": 7469,
      "pectr": 7470,
      "xA": 7471,
      "Active": 7472,
      "timedelta": 7473,
      "OM": 7474,
      "Ġroute": 7475,
      "sical": 7476,
      "mited": 7477,
      "Ġstrict": 7478,
      "zeug": 7479,
      "ĠWhether": 7480,
      "Ġminimum": 7481,
      "Ġtopic": 7482,
      "witter": 7483,
      "GC": 7484,
      "Ġturn": 7485,
      "LOCAL": 7486,
      "Ġquot": 7487,
      "Comment": 7488,
      "Deserialize": 7489,
      "gradient": 7490,
      "139": 7491,
      "@@": 7492,
      "lr": 7493,
      "ĠHow": 7494,
      "kzeug": 7495,
      "Verify": 7496,
      "ĠPl": 7497,
      "137": 7498,
      "ĠCor": 7499,
      "__',": 7500,
      "oom": 7501,
      "teractive": 7502,
      "SGI": 7503,
      "cid": 7504,
      "ensure": 7505,
      "Controller": 7506,
      "122": 7507,
      "Ġhard": 7508,
      "ĠHAS": 7509,
      "white": 7510,
      "keywords": 7511,
      "Ġresolve": 7512,
      "Ġrot": 7513,
      "uous": 7514,
      "editor": 7515,
      "aggregate": 7516,
      "OFF": 7517,
      "lica": 7518,
      "uom": 7519,
      "allclose": 7520,
      "Lookup": 7521,
      "party": 7522,
      "ĠEnsure": 7523,
      "116": 7524,
      "ĠVM": 7525,
      "Ġconfigured": 7526,
      "riteri": 7527,
      "[(": 7528,
      "ĠDon": 7529,
      "nl": 7530,
      "Ġdecorator": 7531,
      "configs": 7532,
      "')(": 7533,
      "Ġargparse": 7534,
      "Utils": 7535,
      "Wait": 7536,
      "ropy": 7537,
      "requirements": 7538,
      "atal": 7539,
      "CTYPE": 7540,
      "][\"": 7541,
      "ĉĉĉĉ": 7542,
      "ĠDocument": 7543,
      "Identifier": 7544,
      "Ġgets": 7545,
      "helpers": 7546,
      "bounded": 7547,
      "clip": 7548,
      "velop": 7549,
      "orizontal": 7550,
      "may": 7551,
      "TagList": 7552,
      "ĠSTR": 7553,
      "Ġerrno": 7554,
      "107": 7555,
      "Ġmembers": 7556,
      "Ġmar": 7557,
      "Ġ(?": 7558,
      "Ġetree": 7559,
      "ĠAUTH": 7560,
      "blems": 7561,
      "Val": 7562,
      "('.')": 7563,
      "crete": 7564,
      "Ġsecret": 7565,
      "yy": 7566,
      "wall": 7567,
      "Ġforward": 7568,
      "TESTS": 7569,
      "abe": 7570,
      "ĠGREEK": 7571,
      "latex": 7572,
      "Ġmem": 7573,
      "tm": 7574,
      "BX": 7575,
      "Ġdigits": 7576,
      "+_+_": 7577,
      "trols": 7578,
      "Fl": 7579,
      "DESCRIPTOR": 7580,
      "Ġdirection": 7581,
      "134": 7582,
      "Indent": 7583,
      "ĠPoint": 7584,
      "Ġproducts": 7585,
      "ula": 7586,
      "ĠDIS": 7587,
      "training": 7588,
      "failUnless": 7589,
      "*\\": 7590,
      "ĠService": 7591,
      "Ð½": 7592,
      "repeated": 7593,
      "Ġqueryset": 7594,
      "Rout": 7595,
      "Ġ':": 7596,
      "venio": 7597,
      "lices": 7598,
      "Generator": 7599,
      "ĠFIXME": 7600,
      "'<": 7601,
      "ives": 7602,
      "ture": 7603,
      "Ġsync": 7604,
      "ĠSUB": 7605,
      "Ġdirs": 7606,
      "onymous": 7607,
      "MC": 7608,
      "Ġdays": 7609,
      "ducer": 7610,
      "Ġrepository": 7611,
      "cycle": 7612,
      "ESP": 7613,
      "Ġcontroller": 7614,
      "ailability": 7615,
      "sph": 7616,
      "world": 7617,
      "updates": 7618,
      "Conver": 7619,
      "oked": 7620,
      "Literal": 7621,
      "={}": 7622,
      "ĠJzKet": 7623,
      "ManyToManyField": 7624,
      "speed": 7625,
      "mime": 7626,
      "Ġcandidate": 7627,
      "ĠArguments": 7628,
      "Ġur": 7629,
      "Encoding": 7630,
      "trigger": 7631,
      "lour": 7632,
      "Ġ256": 7633,
      "Ġdispatch": 7634,
      "ĠVerify": 7635,
      "114": 7636,
      "recv": 7637,
      "PDF": 7638,
      "URI": 7639,
      "ĠTestCase": 7640,
      "cher": 7641,
      "networks": 7642,
      "Space": 7643,
      "splitlines": 7644,
      "Ġthings": 7645,
      "sf": 7646,
      "Ġmet": 7647,
      "URN": 7648,
      "ĠTry": 7649,
      "prompt": 7650,
      ".\"),": 7651,
      "uman": 7652,
      "ĠOpenERP": 7653,
      "Ġind": 7654,
      "refs": 7655,
      "#----------------------------------------------------------------": 7656,
      "installed": 7657,
      "Feed": 7658,
      "Ġgrad": 7659,
      "geometry": 7660,
      "cleanup": 7661,
      "Ġexplicitly": 7662,
      "180": 7663,
      "Ġreading": 7664,
      "moving": 7665,
      "Ġnormalize": 7666,
      "Ġcp": 7667,
      "licies": 7668,
      "Ġphase": 7669,
      "allen": 7670,
      "FromString": 7671,
      "enticate": 7672,
      "Ġ'&": 7673,
      "Mapping": 7674,
      "Ġcause": 7675,
      "Security": 7676,
      "fragment": 7677,
      "Ġuti": 7678,
      "Ġpipeline": 7679,
      "115": 7680,
      "Ġkeywords": 7681,
      "canvas": 7682,
      "andas": 7683,
      "Ġproperly": 7684,
      "migrations": 7685,
      "Ġprocessed": 7686,
      "Display": 7687,
      "Ġable": 7688,
      "TERN": 7689,
      "Tab": 7690,
      "arrow": 7691,
      "Usage": 7692,
      "*',": 7693,
      "([(": 7694,
      "CD": 7695,
      "stime": 7696,
      "ko": 7697,
      "UST": 7698,
      "litext": 7699,
      "Some": 7700,
      "PP": 7701,
      "assertIsNone": 7702,
      "ĠHOLD": 7703,
      "Ġmakes": 7704,
      "Domain": 7705,
      "Ġshift": 7706,
      "ĠStart": 7707,
      "Ġpie": 7708,
      "\"+": 7709,
      "Ġreally": 7710,
      "ĠPost": 7711,
      "Ġmanifest": 7712,
      "Selection": 7713,
      "Ġ$(": 7714,
      "outube": 7715,
      "ancer": 7716,
      "resolver": 7717,
      "Missing": 7718,
      "ĠShould": 7719,
      "mulation": 7720,
      "normalize": 7721,
      "pher": 7722,
      "sizes": 7723,
      "tices": 7724,
      "ivar": 7725,
      "runtime": 7726,
      "1024": 7727,
      "realm": 7728,
      "ĠEND": 7729,
      "AI": 7730,
      "green": 7731,
      "presen": 7732,
      "FileName": 7733,
      "Ġà¤": 7734,
      "ders": 7735,
      "512": 7736,
      "Ġcateg": 7737,
      "Skip": 7738,
      "Ġchecker": 7739,
      "unctools": 7740,
      "Ġordered": 7741,
      "ely": 7742,
      "ĠChange": 7743,
      "Env": 7744,
      "nacl": 7745,
      "DEX": 7746,
      "contain": 7747,
      "Ġplayer": 7748,
      "Ġ{%": 7749,
      "Ġvarious": 7750,
      "pin": 7751,
      "titions": 7752,
      "ÑĢ": 7753,
      "ĠPlease": 7754,
      "mgr": 7755,
      "ToString": 7756,
      "walk": 7757,
      "ĠFirst": 7758,
      "102": 7759,
      "Ġ2011": 7760,
      "Ġtranslation": 7761,
      "ARCH": 7762,
      "Ġeffect": 7763,
      "dynamic": 7764,
      "backends": 7765,
      ":[": 7766,
      "bum": 7767,
      "Collection": 7768,
      "tics": 7769,
      "ONG": 7770,
      "unctuation": 7771,
      "Formatter": 7772,
      "Ġtransport": 7773,
      "floating": 7774,
      "loyment": 7775,
      "Setting": 7776,
      "ĠFake": 7777,
      "dec": 7778,
      "itude": 7779,
      "preview": 7780,
      "ĠHO": 7781,
      "=('": 7782,
      "fact": 7783,
      "compo": 7784,
      "________": 7785,
      "sections": 7786,
      "Ġunpack": 7787,
      "Agent": 7788,
      "assification": 7789,
      "must": 7790,
      "Ġadding": 7791,
      "cookies": 7792,
      "Ġsha": 7793,
      "Ġordering": 7794,
      "Ġthree": 7795,
      "Ġmapper": 7796,
      "oston": 7797,
      "Ġlinear": 7798,
      "ĠSSL": 7799,
      "Ġ2016": 7800,
      "Step": 7801,
      "CLI": 7802,
      "ADDR": 7803,
      "have": 7804,
      "caten": 7805,
      "2015": 7806,
      "phinx": 7807,
      "got": 7808,
      "Ġgeneric": 7809,
      "Cookie": 7810,
      "contact": 7811,
      "Scope": 7812,
      "ĠQU": 7813,
      "Ġindivid": 7814,
      "Ġ'.'": 7815,
      "ARD": 7816,
      "secure": 7817,
      "otype": 7818,
      "Ġ=================================================================": 7819,
      "Ġ}}\"": 7820,
      "dh": 7821,
      "_):": 7822,
      "GROUP": 7823,
      "Ġaxes": 7824,
      "('/')": 7825,
      "Include": 7826,
      "ĠDefaults": 7827,
      "bra": 7828,
      "Ġ21": 7829,
      "Ġrather": 7830,
      "AddressValue": 7831,
      "produce": 7832,
      "La": 7833,
      "INST": 7834,
      "ond": 7835,
      "Transport": 7836,
      "outer": 7837,
      "Ġmatched": 7838,
      "ĠINC": 7839,
      "eep": 7840,
      "Category": 7841,
      "215": 7842,
      "ĠPY": 7843,
      "Common": 7844,
      "))))": 7845,
      "ĊĠĠĠĠĠĠĠĠĠĠĠĠĊĠĠĠĠĠĠĠĠĠĠĠ": 7846,
      "BL": 7847,
      "star": 7848,
      "Ġpointer": 7849,
      "Folder": 7850,
      "Cer": 7851,
      "Allow": 7852,
      "smart": 7853,
      "Ġnullable": 7854,
      "AMPL": 7855,
      "uan": 7856,
      "Ġ\"\"\")": 7857,
      "Ġruns": 7858,
      "Ġwon": 7859,
      "Ġedi": 7860,
      "ĠĠĠĠĠĠĠĠĠĠĠĠĠĠĠĠĠĠ": 7861,
      "kb": 7862,
      "('#": 7863,
      "SIG": 7864,
      "nr": 7865,
      "peer": 7866,
      "unter": 7867,
      "strap": 7868,
      "Ġones": 7869,
      "vertical": 7870,
      "Ġformatted": 7871,
      "AK": 7872,
      "sol": 7873,
      "Cmd": 7874,
      "Ġ26": 7875,
      "Ġrunner": 7876,
      "band": 7877,
      "echo": 7878,
      "ij": 7879,
      "Ġ\"$": 7880,
      "unCP": 7881,
      "collections": 7882,
      "Ġspaces": 7883,
      "DOCUMENT": 7884,
      "panel": 7885,
      "inger": 7886,
      "xed": 7887,
      "ĠIndexError": 7888,
      "cod": 7889,
      "Ġdefines": 7890,
      "Cleanup": 7891,
      "dicts": 7892,
      "TYPES": 7893,
      "Ġquestion": 7894,
      "zure": 7895,
      "+\\": 7896,
      "\"/>": 7897,
      "regular": 7898,
      "erature": 7899,
      "Grid": 7900,
      "Ġ404": 7901,
      "FD": 7902,
      "čĊĉĉ": 7903,
      "assertAlmostEqual": 7904,
      "ĠConvert": 7905,
      "118": 7906,
      "Ġchecking": 7907,
      "Ġconfigure": 7908,
      "coming": 7909,
      "ĠExp": 7910,
      "but": 7911,
      "Ġwifi": 7912,
      "bob": 7913,
      "Ġpredictions": 7914,
      "theme": 7915,
      "LINK": 7916,
      "SITE": 7917,
      "Ġcost": 7918,
      "limiter": 7919,
      "535": 7920,
      "Implementation": 7921,
      "hooks": 7922,
      "Ġchecked": 7923,
      "queryset": 7924,
      "cross": 7925,
      "Ġdeg": 7926,
      "Track": 7927,
      "gri": 7928,
      "Timer": 7929,
      "rou": 7930,
      "errno": 7931,
      "irror": 7932,
      "curacy": 7933,
      "Ġexecuted": 7934,
      "stand": 7935,
      "reet": 7936,
      "Ġtemporary": 7937,
      "isten": 7938,
      "ople": 7939,
      "It": 7940,
      "WIN": 7941,
      "Popen": 7942,
      "Ġassigned": 7943,
      "ores": 7944,
      "arity": 7945,
      "ASK": 7946,
      "ORIZONT": 7947,
      "payment": 7948,
      "ĠFe": 7949,
      "cryption": 7950,
      "titude": 7951,
      "hd": 7952,
      "Ġarr": 7953,
      "logical": 7954,
      "........": 7955,
      "Ġfragment": 7956,
      "126": 7957,
      "ĠGenerate": 7958,
      "catalog": 7959,
      "Ġ128": 7960,
      "Operator": 7961,
      "Ġdeal": 7962,
      "Raw": 7963,
      "ĠLa": 7964,
      "Exists": 7965,
      "nc": 7966,
      "mtree": 7967,
      "2006": 7968,
      "ining": 7969,
      "Ġpatterns": 7970,
      "Ġremaining": 7971,
      "005": 7972,
      "splitext": 7973,
      "Ġpub": 7974,
      "Ġitertools": 7975,
      "initions": 7976,
      "xs": 7977,
      "Ġthrow": 7978,
      "004": 7979,
      "Permission": 7980,
      "Ġprevent": 7981,
      "CThostFtdc": 7982,
      "rected": 7983,
      "ace": 7984,
      "/(": 7985,
      "çļ": 7986,
      "Ġwarn": 7987,
      "coord": 7988,
      "Named": 7989,
      "ORIZONTAL": 7990,
      "250": 7991,
      "Ġglobals": 7992,
      "_='": 7993,
      "Ġhistory": 7994,
      "connections": 7995,
      "UCT": 7996,
      "&#": 7997,
      "slot": 7998,
      "lities": 7999,
      "Ġscan": 8000,
      "232": 8001,
      "Ġcloud": 8002,
      "ĠLib": 8003,
      "Dest": 8004,
      "finite": 8005,
      "xpath": 8006,
      "lave": 8007,
      "sphinx": 8008,
      "coef": 8009,
      "006": 8010,
      "restore": 8011,
      "Ġri": 8012,
      "Ġsequences": 8013,
      "Analy": 8014,
      "ĠStop": 8015,
      "multip": 8016,
      "radius": 8017,
      "Ġrendered": 8018,
      "UNK": 8019,
      "Ġbackground": 8020,
      "GS": 8021,
      "locations": 8022,
      "Ġprom": 8023,
      "ĠFoo": 8024,
      "Ġcaller": 8025,
      "Ġ51": 8026,
      "Ġmatplotlib": 8027,
      "ĠPerson": 8028,
      "Prober": 8029,
      "Required": 8030,
      "Ġevalu": 8031,
      "coords": 8032,
      "Ġprice": 8033,
      "Ġbetter": 8034,
      "ao": 8035,
      "ĠIF": 8036,
      "Ġservers": 8037,
      ".'),": 8038,
      "Ġentire": 8039,
      "386": 8040,
      "stor": 8041,
      "erge": 8042,
      "Ġzer": 8043,
      "Ġretrieve": 8044,
      "DL": 8045,
      "PECIAL": 8046,
      "ji": 8047,
      "ye": 8048,
      "SERT": 8049,
      "roles": 8050,
      "ĠUsed": 8051,
      "Tx": 8052,
      "ĠTag": 8053,
      "registration": 8054,
      "ĠDes": 8055,
      "Routing": 8056,
      "Ġnewline": 8057,
      "Ġrecent": 8058,
      "Ġcross": 8059,
      "mall": 8060,
      "Ġ'':": 8061,
      "rase": 8062,
      "NODE": 8063,
      "Detail": 8064,
      "čĊčĊč": 8065,
      "LEX": 8066,
      "Stub": 8067,
      "ĠBLOCK": 8068,
      "wimax": 8069,
      "Pe": 8070,
      "ADATA": 8071,
      "Ġwrapped": 8072,
      "Aggreg": 8073,
      "Ġretain": 8074,
      "mpath": 8075,
      "za": 8076,
      "ctl": 8077,
      "ATCH": 8078,
      "108": 8079,
      "enticated": 8080,
      "ele": 8081,
      "Ġletter": 8082,
      "/.": 8083,
      "NULL": 8084,
      "rack": 8085,
      "////////////////////////////////////////////////////////////////": 8086,
      "Ġ27": 8087,
      "Ġlonger": 8088,
      "ĠClass": 8089,
      "hw": 8090,
      "Ġbal": 8091,
      "pickle": 8092,
      "lah": 8093,
      "xB": 8094,
      "Ġaverage": 8095,
      "pet": 8096,
      "ulated": 8097,
      "ĠCONTROL": 8098,
      "Ġteam": 8099,
      "ASH": 8100,
      "Ġfrozen": 8101,
      "reply": 8102,
      "Ġdid": 8103,
      "calc": 8104,
      "ĊĠĠĠĠĠĠĠĠĠĠĠĠĠĠĠĠĠĠĠĠĠĠĠĠĠĠĠĠĠĠĠĠĠĠĠĠĠĠĠĠĠĠĠĠĠĠĠĠĠĠĠ": 8105,
      "çļĦ": 8106,
      "ipher": 8107,
      "Cell": 8108,
      "')):": 8109,
      "management": 8110,
      "until": 8111,
      "Ġspeed": 8112,
      "ĠConnection": 8113,
      "sender": 8114,
      "urses": 8115,
      "Ġgtk": 8116,
      "Filename": 8117,
      "Ġvs": 8118,
      ">=": 8119,
      "Ġgive": 8120,
      "parame": 8121,
      "tw": 8122,
      "ĠACUTE": 8123,
      "'\\\\": 8124,
      "onal": 8125,
      "Ġcenter": 8126,
      "Ġmag": 8127,
      "2011": 8128,
      "Ġgu": 8129,
      "audio": 8130,
      "rypto": 8131,
      "ĠMARK": 8132,
      "ĠQuery": 8133,
      "Ġdim": 8134,
      "Ġsegment": 8135,
      "today": 8136,
      "Ġeverything": 8137,
      "136": 8138,
      "Ġwhitespace": 8139,
      "Ġam": 8140,
      "ObjectBase": 8141,
      "ĠCloud": 8142,
      "ano": 8143,
      "ĠNotes": 8144,
      "Ġev": 8145,
      "raps": 8146,
      "iterable": 8147,
      "illi": 8148,
      "authors": 8149,
      "\")),": 8150,
      "Ġnoqa": 8151,
      "Ġreturning": 8152,
      "cart": 8153,
      "Install": 8154,
      "Ġ59": 8155,
      "VT": 8156,
      "'),('": 8157,
      "UFF": 8158,
      "emit": 8159,
      "bias": 8160,
      "dy": 8161,
      "ASE": 8162,
      "xC": 8163,
      "ĠHOLDERS": 8164,
      "rename": 8165,
      "Ġnstime": 8166,
      "encoded": 8167,
      "Gen": 8168,
      "Symbol": 8169,
      "operations": 8170,
      "RPC": 8171,
      "ValidationError": 8172,
      "Body": 8173,
      "acquire": 8174,
      "MAIL": 8175,
      "Sample": 8176,
      "Ġ34": 8177,
      "=\\\"": 8178,
      "ĊĠĠĠĠĠĠĠĠĠĠĠĠĠĠĠĠĠĠĠĠĠĠĠĠĠĠĠĠĠĠĠĠĠĠĠĠĠĠĠĠĠĠĠĠĠĠĠĠĠ": 8179,
      "mtime": 8180,
      "Ġtrun": 8181,
      "imation": 8182,
      "calendar": 8183,
      "writeField": 8184,
      "Left": 8185,
      "\"><": 8186,
      "Ġurls": 8187,
      "384": 8188,
      "Ġ'(": 8189,
      "Ġir": 8190,
      "hide": 8191,
      "finish": 8192,
      "EVENT": 8193,
      "]{": 8194,
      "XY": 8195,
      "lexible": 8196,
      "åĲ": 8197,
      "Bind": 8198,
      "SN": 8199,
      "Ġinventory": 8200,
      "Ġbeta": 8201,
      "ESIS": 8202,
      "MULT": 8203,
      "ĠForm": 8204,
      "RC": 8205,
      "Uan": 8206,
      "Ġedges": 8207,
      "trunc": 8208,
      "lify": 8209,
      "har": 8210,
      "Ġpermitted": 8211,
      "Ġindividual": 8212,
      "servation": 8213,
      "Ġmetavar": 8214,
      "mkdir": 8215,
      "501": 8216,
      "ĠUSA": 8217,
      "ĠSCons": 8218,
      "Ġconside": 8219,
      "perm": 8220,
      "prox": 8221,
      "activate": 8222,
      "FB": 8223,
      "Ġneutron": 8224,
      "GP": 8225,
      "ĠBoston": 8226,
      "Interval": 8227,
      "ĠMax": 8228,
      "Save": 8229,
      "Ġcurr": 8230,
      "uab": 8231,
      "ĠSkip": 8232,
      "cipe": 8233,
      "tester": 8234,
      "ordered": 8235,
      "AMPLES": 8236,
      "ndarray": 8237,
      "METHO": 8238,
      "Ġstarted": 8239,
      "activity": 8240,
      "iform": 8241,
      "Ġcounts": 8242,
      "uac": 8243,
      "irth": 8244,
      "ĠVERT": 8245,
      "ENTIAL": 8246,
      "Ġdocuments": 8247,
      "BUILD": 8248,
      "Fake": 8249,
      "olds": 8250,
      "150": 8251,
      "Rect": 8252,
      "VEN": 8253,
      "Please": 8254,
      "007": 8255,
      "ĠCal": 8256,
      "Stats": 8257,
      "windows": 8258,
      "ĠManagement": 8259,
      "Ġconv": 8260,
      "Ġtenant": 8261,
      "003": 8262,
      "Environment": 8263,
      "Ġ84": 8264,
      "Ġinitialize": 8265,
      "Ġdom": 8266,
      "ĠVERTICAL": 8267,
      "edx": 8268,
      "2000": 8269,
      "tor": 8270,
      "ĠStream": 8271,
      "MESSAGE": 8272,
      "rea": 8273,
      "crypted": 8274,
      "cleaned": 8275,
      "235": 8276,
      "eps": 8277,
      "pow": 8278,
      "REF": 8279,
      "DED": 8280,
      "ĠArticle": 8281,
      "čĊĠĠĠĠĠĠĠĠĠĠĠĠĠĠĠĠĠĠĠĠĠĠĠ": 8282,
      "spam": 8283,
      "tick": 8284,
      "BY": 8285,
      "visor": 8286,
      "Ġinherit": 8287,
      "Ġcwd": 8288,
      "Ġfid": 8289,
      "Ġ400": 8290,
      "Ġchunks": 8291,
      "Ġstuff": 8292,
      "deepcopy": 8293,
      "ARGET": 8294,
      "ĠĠĠĠĠĠĠĠĠĠĠĠĠĠĠĠĠ": 8295,
      "callable": 8296,
      "Ġhandlers": 8297,
      "Ġmuch": 8298,
      "ĊĉĊ": 8299,
      "Success": 8300,
      "udb": 8301,
      "good": 8302,
      "ĠStr": 8303,
      "through": 8304,
      "bottom": 8305,
      "254": 8306,
      "ĠGeneric": 8307,
      "Ġinline": 8308,
      "Inte": 8309,
      "Append": 8310,
      "thumbnail": 8311,
      "135": 8312,
      "xD": 8313,
      "METADATA": 8314,
      "Ġ2006": 8315,
      "/<": 8316,
      "à¤¾": 8317,
      "([('": 8318,
      "reat": 8319,
      "urtle": 8320,
      "Ġenough": 8321,
      "ndim": 8322,
      "stics": 8323,
      "lencode": 8324,
      "ĠPass": 8325,
      "Decoder": 8326,
      "entities": 8327,
      "Ġhint": 8328,
      "lopen": 8329,
      "ĊĊĊĠ": 8330,
      "//////": 8331,
      "rst": 8332,
      ".],": 8333,
      "mq": 8334,
      "Ġsqlalchemy": 8335,
      "Ġdynamic": 8336,
      "Ġhashlib": 8337,
      "msvs": 8338,
      "2001": 8339,
      "`:": 8340,
      "setText": 8341,
      "326": 8342,
      "Ġreplacement": 8343,
      "Ġfire": 8344,
      "setter": 8345,
      "uad": 8346,
      "makedirs": 8347,
      "Ġdiag": 8348,
      "serializer": 8349,
      "Ġdepends": 8350,
      "ĠAb": 8351,
      "Ġ{}\".": 8352,
      "Ġ2004": 8353,
      "ĠCompute": 8354,
      "('')": 8355,
      "certs": 8356,
      "Regexp": 8357,
      "padding": 8358,
      "seg": 8359,
      "ĠSp": 8360,
      "stone": 8361,
      "ĠImp": 8362,
      "Ġlibraries": 8363,
      "ighted": 8364,
      "Ġchars": 8365,
      "CREATE": 8366,
      "Ġmigration": 8367,
      "intain": 8368,
      "adow": 8369,
      "accounts": 8370,
      "xfe": 8371,
      "Ġmonitor": 8372,
      "dx": 8373,
      "rective": 8374,
      "Ġ77": 8375,
      "ffic": 8376,
      "Ġthing": 8377,
      "ĠHE": 8378,
      "åħ": 8379,
      "Cor": 8380,
      "Ð¾Ð": 8381,
      "pts": 8382,
      "çĶ": 8383,
      "zon": 8384,
      "gtest": 8385,
      "Ġinterfaces": 8386,
      "air": 8387,
      "ĠCustom": 8388,
      "Defini": 8389,
      "ABC": 8390,
      "GT": 8391,
      "gw": 8392,
      "randint": 8393,
      "ĠOptions": 8394,
      "inel": 8395,
      "Ġlat": 8396,
      "serialized": 8397,
      "dv": 8398,
      "black": 8399,
      "è¯": 8400,
      "irt": 8401,
      "Ġfloating": 8402,
      "ÙĦ": 8403,
      "ranges": 8404,
      "Internal": 8405,
      "WORK": 8406,
      "Limit": 8407,
      "allation": 8408,
      "lide": 8409,
      "ĊĊĠĠ": 8410,
      "#////////////////////////////////////////////////////////////////": 8411,
      "Machine": 8412,
      "Ġear": 8413,
      "OUTPUT": 8414,
      "CallbackImpl": 8415,
      "Part": 8416,
      "Ġcontributors": 8417,
      "Ġmaterials": 8418,
      "hours": 8419,
      "saved": 8420,
      "repository": 8421,
      "Accept": 8422,
      "'>": 8423,
      "Ġboundary": 8424,
      "334": 8425,
      "#//////////////////////////////////////////////////////////////////////": 8426,
      "compiled": 8427,
      "čĊĠĠĠĠ": 8428,
      ":],": 8429,
      "thrift": 8430,
      "Ġtok": 8431,
      "CURE": 8432,
      "Multiple": 8433,
      "Ġcompat": 8434,
      "pixel": 8435,
      "Height": 8436,
      "Ġserialize": 8437,
      "Arch": 8438,
      "Ġimported": 8439,
      "qt": 8440,
      "Ġ\\\"": 8441,
      "lick": 8442,
      "energy": 8443,
      "frames": 8444,
      "ni": 8445,
      "Ġpoly": 8446,
      "Backend": 8447,
      "Ġ{{": 8448,
      "ĠMatrix": 8449,
      "libs": 8450,
      "ucc": 8451,
      "major": 8452,
      "ILE": 8453,
      "ï¼": 8454,
      "Ġexpressions": 8455,
      "ENS": 8456,
      "Ġprompt": 8457,
      "Abstract": 8458,
      "rol": 8459,
      "additional": 8460,
      "SHA": 8461,
      "migrate": 8462,
      "Constraint": 8463,
      "velopment": 8464,
      "ĠCl": 8465,
      "ĠLanguage": 8466,
      "ĠPol": 8467,
      "Enter": 8468,
      "Ġrepresents": 8469,
      "PA": 8470,
      "squ": 8471,
      "THON": 8472,
      "globals": 8473,
      "Ñģ": 8474,
      "BLOCK": 8475,
      "jpg": 8476,
      "âĢ": 8477,
      "igen": 8478,
      "Same": 8479,
      "]\"": 8480,
      "Hook": 8481,
      "Ġscen": 8482,
      "897": 8483,
      "Ġnx": 8484,
      "Ġinvoice": 8485,
      "Ġcover": 8486,
      "flatten": 8487,
      "160": 8488,
      "initialize": 8489,
      "ANSIBLE": 8490,
      "Ġcreates": 8491,
      "-#": 8492,
      "Language": 8493,
      "Ġiteration": 8494,
      "ĠTask": 8495,
      "ĠDelete": 8496,
      "()``": 8497,
      "Ġboot": 8498,
      "Imp": 8499,
      "Ġservices": 8500,
      "clause": 8501,
      "Ġclause": 8502,
      "Ġidentity": 8503,
      "Ġmu": 8504,
      "ĠValidationError": 8505,
      "whitespace": 8506,
      "301": 8507,
      "Classifier": 8508,
      "Ġgeo": 8509,
      "FieldDescriptor": 8510,
      "ĠState": 8511,
      "openstack": 8512,
      "GGER": 8513,
      "construct": 8514,
      "sale": 8515,
      "Properties": 8516,
      "Station": 8517,
      "ĠCHAR": 8518,
      "sect": 8519,
      "Ġtrailing": 8520,
      "GTH": 8521,
      "Ġ\\\\": 8522,
      "mid": 8523,
      "Engine": 8524,
      "ully": 8525,
      "Ġnb": 8526,
      "138": 8527,
      "riend": 8528,
      "Shell": 8529,
      "%%": 8530,
      "Ġklass": 8531,
      "chemas": 8532,
      "304": 8533,
      "merica": 8534,
      "atar": 8535,
      "average": 8536,
      "allenge": 8537,
      "ĠPri": 8538,
      "Ġconnected": 8539,
      "ĠĠĠĠĠĠĠĠĠĠĠĠĠĠĠĠĠĠĠ": 8540,
      "Ġflavor": 8541,
      "consumer": 8542,
      "istogram": 8543,
      "anging": 8544,
      "Ġsimilar": 8545,
      "Ġ!": 8546,
      "comparison": 8547,
      "Proto": 8548,
      "CAP": 8549,
      "Multicast": 8550,
      "302": 8551,
      "Ġbackwards": 8552,
      "jected": 8553,
      "hat": 8554,
      "Setup": 8555,
      "peak": 8556,
      "647": 8557,
      "USED": 8558,
      "Ġconsole": 8559,
      "atforms": 8560,
      "Expr": 8561,
      "Ġmm": 8562,
      "chdir": 8563,
      "Compute": 8564,
      "Na": 8565,
      "inator": 8566,
      "Ġmut": 8567,
      "xyz": 8568,
      "Ġimmediate": 8569,
      "Ġftype": 8570,
      "ball": 8571,
      "AndReturn": 8572,
      "digit": 8573,
      "Ġui": 8574,
      "dependency": 8575,
      "CLA": 8576,
      "dentifiers": 8577,
      "review": 8578,
      "Ġcatch": 8579,
      "Distribution": 8580,
      "009": 8581,
      "Ġperf": 8582,
      "widgets": 8583,
      "Dec": 8584,
      "since": 8585,
      "Ġjs": 8586,
      "Pick": 8587,
      "atype": 8588,
      "examples": 8589,
      "strategy": 8590,
      "PositiveIntegerField": 8591,
      "ĊĊĠĠĠĠĠĠĠĠĠ": 8592,
      "Ġ(@": 8593,
      "('',": 8594,
      "avg": 8595,
      "ĠSession": 8596,
      "Ġsol": 8597,
      "Dep": 8598,
      "Package": 8599,
      "Ter": 8600,
      "CCE": 8601,
      "aliases": 8602,
      "Ġconversion": 8603,
      "PacketMetadata": 8604,
      "Ġgeneral": 8605,
      "seen": 8606,
      "[]": 8607,
      "čĊĠĠĠĠĠ": 8608,
      "FIELD": 8609,
      "Loss": 8610,
      "ARB": 8611,
      "ĠControl": 8612,
      "Ġ{}),": 8613,
      "stage": 8614,
      "udd": 8615,
      "tmpdir": 8616,
      "setitem": 8617,
      "unused": 8618,
      "sites": 8619,
      "Ġweek": 8620,
      "supp": 8621,
      "ornado": 8622,
      "Ġparents": 8623,
      "php": 8624,
      "checks": 8625,
      "Ġrect": 8626,
      "estimator": 8627,
      "Memory": 8628,
      "Sparse": 8629,
      "ussian": 8630,
      "Connect": 8631,
      "Other": 8632,
      "Ġpay": 8633,
      "ObjectFactory": 8634,
      "Ġssh": 8635,
      ")|": 8636,
      ">`": 8637,
      "ÛĮ": 8638,
      "ridden": 8639,
      "Validator": 8640,
      "ierarchy": 8641,
      "Ġ(<": 8642,
      "Ġcycle": 8643,
      "mysql": 8644,
      "Notify": 8645,
      "Ġprobably": 8646,
      "Windows": 8647,
      "------": 8648,
      "Ġbecome": 8649,
      "_'": 8650,
      "ĠBlock": 8651,
      "Ġconsidered": 8652,
      "utions": 8653,
      "edu": 8654,
      "ĠSINGLE": 8655,
      "SK": 8656,
      "vile": 8657,
      "atory": 8658,
      "Ġrout": 8659,
      "Section": 8660,
      "Ġverbosity": 8661,
      "008": 8662,
      "Ġshare": 8663,
      "2009": 8664,
      "border": 8665,
      "Iteration": 8666,
      "uca": 8667,
      "ĠshowIndent": 8668,
      "finished": 8669,
      "VICES": 8670,
      "Ġcalculate": 8671,
      "Xml": 8672,
      "Help": 8673,
      "Zip": 8674,
      "ninja": 8675,
      "NodeContainer": 8676,
      "CACHE": 8677,
      "Ġchr": 8678,
      "Ġaltern": 8679,
      "['_": 8680,
      "Zero": 8681,
      "EY": 8682,
      "Ġplan": 8683,
      "-------------": 8684,
      "Ġ35": 8685,
      "Ġapps": 8686,
      "Listen": 8687,
      "}),": 8688,
      "Ġemit": 8689,
      "ĠHandle": 8690,
      "Ġoptparse": 8691,
      "ĠDatabase": 8692,
      "ARE": 8693,
      "Fin": 8694,
      "cov": 8695,
      "Book": 8696,
      "Ġloading": 8697,
      "»å": 8698,
      "EE": 8699,
      "Ġ;": 8700,
      "xcode": 8701,
      "ĠØ": 8702,
      "ĠDIRECT": 8703,
      "cons": 8704,
      "neg": 8705,
      "Ġpor": 8706,
      "portal": 8707,
      "Unexpected": 8708,
      "resize": 8709,
      "defs": 8710,
      "ND": 8711,
      "\\\\\\\\": 8712,
      "\"]=": 8713,
      "PFN": 8714,
      "ners": 8715,
      "ets": 8716,
      "Ġreplaced": 8717,
      "objs": 8718,
      ",%": 8719,
      "Ġ'?": 8720,
      "spi": 8721,
      "Ġmanual": 8722,
      "TABLE": 8723,
      "ĠHORIZONTAL": 8724,
      "ĠArray": 8725,
      "hard": 8726,
      "INIT": 8727,
      "Ġmx": 8728,
      "ĠINTER": 8729,
      "ĠSearch": 8730,
      "224": 8731,
      "Ġschedule": 8732,
      "Ġ00": 8733,
      "bitrary": 8734,
      "Virtual": 8735,
      "umeration": 8736,
      "inct": 8737,
      "](": 8738,
      "attemp": 8739,
      "čĊĠĠĠĠĠĠĠĠ": 8740,
      "tabs": 8741,
      "roke": 8742,
      "à¥į": 8743,
      "Ġsolution": 8744,
      "SW": 8745,
      "silon": 8746,
      "ĠRet": 8747,
      "asarray": 8748,
      "Ġplease": 8749,
      "ACTER": 8750,
      "Ed": 8751,
      "Ġhidden": 8752,
      "Ġstati": 8753,
      "urther": 8754,
      "repeat": 8755,
      "erkzeug": 8756,
      "UUID": 8757,
      "Ġconven": 8758,
      "variant": 8759,
      "COUNT": 8760,
      "ĠPOST": 8761,
      "033": 8762,
      "Ġgs": 8763,
      "ens": 8764,
      "Ġthreshold": 8765,
      "CLAIM": 8766,
      "ĠToken": 8767,
      "demo": 8768,
      "fixtures": 8769,
      "aemon": 8770,
      "+)": 8771,
      "=\"\",": 8772,
      "ĠOrderedDict": 8773,
      "łģ": 8774,
      "Ġcollect": 8775,
      "#####": 8776,
      "ĠWith": 8777,
      "Ġsensor": 8778,
      "ĠPermission": 8779,
      "Ġ36": 8780,
      "Bounded": 8781,
      "creation": 8782,
      "AttributeAccessor": 8783,
      "FAIL": 8784,
      "Ġliteral": 8785,
      "loading": 8786,
      "gid": 8787,
      "prod": 8788,
      "Ġexcluded": 8789,
      "ĠCa": 8790,
      "Ġalt": 8791,
      "Ġsuccessfully": 8792,
      "Ġunderlying": 8793,
      "Ġregard": 8794,
      "assertNotIn": 8795,
      "pw": 8796,
      "FTDC": 8797,
      "([],": 8798,
      "dirty": 8799,
      "vanced": 8800,
      "()).": 8801,
      "ĠCho": 8802,
      "TOKEN": 8803,
      "bib": 8804,
      "='/": 8805,
      "Ġ99": 8806,
      "lerance": 8807,
      "OPTIONS": 8808,
      "Ġhttplib": 8809,
      "ki": 8810,
      "keras": 8811,
      "Ġseg": 8812,
      "decoder": 8813,
      "Namespace": 8814,
      "tcp": 8815,
      "MOD": 8816,
      "ussion": 8817,
      "Codec": 8818,
      "DOWN": 8819,
      "ĠSPECIAL": 8820,
      "STIT": 8821,
      "ov": 8822,
      "Ġeditor": 8823,
      "Additional": 8824,
      "rical": 8825,
      "Ġproblems": 8826,
      "Ġld": 8827,
      "Ġsever": 8828,
      "herited": 8829,
      "uniform": 8830,
      "shutdown": 8831,
      "ORM": 8832,
      "algorithm": 8833,
      "semble": 8834,
      "fw": 8835,
      "Ġruntime": 8836,
      "Ġeasy": 8837,
      "volumes": 8838,
      "Ġlatest": 8839,
      "Ġexactly": 8840,
      "America": 8841,
      "Batch": 8842,
      "pus": 8843,
      "Ġbundle": 8844,
      "103": 8845,
      "Ġhomeassistant": 8846,
      "}{": 8847,
      "quota": 8848,
      "Null": 8849,
      "Ġcols": 8850,
      "VERT": 8851,
      "Ġwhole": 8852,
      "Ġæ": 8853,
      "401": 8854,
      "associ": 8855,
      "workflow": 8856,
      "ĠBad": 8857,
      "books": 8858,
      "parents": 8859,
      "Ġhandled": 8860,
      "NUMB": 8861,
      "Split": 8862,
      "ĠMovedAttribute": 8863,
      "Ġyaml": 8864,
      "Ġdifference": 8865,
      "fidence": 8866,
      "219": 8867,
      "Ġdoctest": 8868,
      "Ġpred": 8869,
      "Ġface": 8870,
      "={\"": 8871,
      "mazon": 8872,
      "Ġports": 8873,
      "scheduler": 8874,
      "ĠGeo": 8875,
      "Ġcopied": 8876,
      "tracker": 8877,
      "Ġpercent": 8878,
      "Ġtheme": 8879,
      "Login": 8880,
      "177": 8881,
      "Db": 8882,
      "ĠInte": 8883,
      "PK": 8884,
      "hot": 8885,
      "Win": 8886,
      "ynomial": 8887,
      "union": 8888,
      "Ġslug": 8889,
      "CCEED": 8890,
      "Ġ\\'": 8891,
      "ĠĊĠĠĠĠĠĠĠĠĠĠĠĠĠĠĠ": 8892,
      "STRUCT": 8893,
      "Ġ\"\"\"<": 8894,
      "STITUTE": 8895,
      "cpus": 8896,
      "Ġmultip": 8897,
      "ENABLE": 8898,
      "TIMEOUT": 8899,
      "Ġtw": 8900,
      "Ġ|=": 8901,
      "remain": 8902,
      "coeff": 8903,
      "Ġsender": 8904,
      "attachment": 8905,
      "categories": 8906,
      "former": 8907,
      "Wor": 8908,
      "REAM": 8909,
      "Ġ[{": 8910,
      "formatter": 8911,
      "depends": 8912,
      "WifiMac": 8913,
      "leaf": 8914,
      "ftp": 8915,
      "titles": 8916,
      "Ġvisible": 8917,
      "EXAMPLES": 8918,
      "maps": 8919,
      "Ġoccurred": 8920,
      "II": 8921,
      "mpling": 8922,
      "jection": 8923,
      "started": 8924,
      "Ġimports": 8925,
      "Ġser": 8926,
      "Ġincorrect": 8927,
      "checksum": 8928,
      "Ġspecification": 8929,
      "Conf": 8930,
      "Ġrelationship": 8931,
      "Ġgreater": 8932,
      "codecs": 8933,
      "Bound": 8934,
      "fire": 8935,
      "CHECK": 8936,
      "Ġ2009": 8937,
      "written": 8938,
      "literal": 8939,
      "Ln": 8940,
      "figure": 8941,
      ";'": 8942,
      "Ġestimator": 8943,
      "ĠBook": 8944,
      "anity": 8945,
      "semb": 8946,
      "IMP": 8947,
      "DOCUMENTATION": 8948,
      "ante": 8949,
      "Ġnumeric": 8950,
      "modify": 8951,
      "iny": 8952,
      "unexpected": 8953,
      "Icon": 8954,
      "ĠSUCCEED": 8955,
      "sensor": 8956,
      "stubs": 8957,
      "vv": 8958,
      "Ġbel": 8959,
      "ended": 8960,
      "pd": 8961,
      "ĊĠĠĠĠĠĠĠĠĠĠĠĠĠĠĠĠĠĠĠĠĠĠĠĠĠĠĠĠĠĠĠĠĠĠĠĠĠĠĠĠĠĠĠĠĠĠĠĠĠĠ": 8962,
      "Ġplugins": 8963,
      "__))": 8964,
      "positive": 8965,
      "Ġcontact": 8966,
      "çłģ": 8967,
      "Ġclick": 8968,
      "Ġ\"*": 8969,
      "Ġoverwrite": 8970,
      "Ġplain": 8971,
      "Site": 8972,
      "rfc": 8973,
      "ANY": 8974,
      "OIN": 8975,
      "Ġflush": 8976,
      "Ġasset": 8977,
      "Ġ[%": 8978,
      "NECTION": 8979,
      "DA": 8980,
      "tified": 8981,
      "164": 8982,
      "Ġcoordinates": 8983,
      "pread": 8984,
      "Ġrpc": 8985,
      "ĠVAL": 8986,
      "published": 8987,
      "314": 8988,
      "___": 8989,
      "ĠDISCLAIM": 8990,
      "ĠGE": 8991,
      "Ġred": 8992,
      "Cursor": 8993,
      "PFNGL": 8994,
      "?\\": 8995,
      "tip": 8996,
      "kill": 8997,
      "migration": 8998,
      "<<": 8999,
      "Ġ*=": 9000,
      "imen": 9001,
      "IBILITY": 9002,
      "ĠCIR": 9003,
      "WA": 9004,
      "Ġ'{}": 9005,
      "Ġabstract": 9006,
      "candidate": 9007,
      "\"')": 9008,
      "Ġstdin": 9009,
      "fk": 9010,
      "ANGE": 9011,
      "ÙĪ": 9012,
      "Ġ199": 9013,
      "274": 9014,
      "ostream": 9015,
      "Ġ[{'": 9016,
      "Ġdirname": 9017,
      "---+": 9018,
      "chart": 9019,
      "SEQUENTIAL": 9020,
      "AIN": 9021,
      "ĠURI": 9022,
      "Ġcountry": 9023,
      "ĠLIGHT": 9024,
      "Ġcompatible": 9025,
      "icrosoft": 9026,
      "ĠEOF": 9027,
      "Ġtranslate": 9028,
      "Testing": 9029,
      "ashes": 9030,
      "Ġimplements": 9031,
      "PASSWORD": 9032,
      "Ġmaps": 9033,
      "Ġinstanti": 9034,
      "Ġ``__": 9035,
      "Ġfacts": 9036,
      "FITS": 9037,
      "Ġrng": 9038,
      "xFF": 9039,
      "Ġchecksum": 9040,
      "cells": 9041,
      "Full": 9042,
      "rator": 9043,
      "clared": 9044,
      "Ġentities": 9045,
      "[[": 9046,
      "Fi": 9047,
      "Ġbottom": 9048,
      "TEXTNS": 9049,
      "orse": 9050,
      "åĪ": 9051,
      "Ġemp": 9052,
      "manage": 9053,
      "Choice": 9054,
      "ĠISO": 9055,
      "130": 9056,
      "ABIC": 9057,
      "Ġcleanup": 9058,
      "CONTEXT": 9059,
      "PN": 9060,
      "coin": 9061,
      "alect": 9062,
      "Ġ-----": 9063,
      "'ve": 9064,
      "Ġè": 9065,
      "Ġrestore": 9066,
      "Ġtax": 9067,
      "ĊĉĉĊĉ": 9068,
      "shapes": 9069,
      "ĠAssertionError": 9070,
      "organization": 9071,
      "tenv": 9072,
      "Ġdiv": 9073,
      "ĠTR": 9074,
      "ĠMethod": 9075,
      "Ġcodec": 9076,
      "æĪ": 9077,
      "azure": 9078,
      "Ġ2008": 9079,
      "Ġdisplayed": 9080,
      "Ġfailures": 9081,
      "inted": 9082,
      "Cancel": 9083,
      "0000000": 9084,
      "Ġrhs": 9085,
      "dictionary": 9086,
      "Ġlar": 9087,
      "Ġgtest": 9088,
      "Cloud": 9089,
      "']):": 9090,
      "aj": 9091,
      "quential": 9092,
      "Expression": 9093,
      "ĠUTF": 9094,
      "imators": 9095,
      "ised": 9096,
      "('^": 9097,
      "frappe": 9098,
      "that": 9099,
      "Ġls": 9100,
      "ĠPrint": 9101,
      "ĠLOSS": 9102,
      "ĠSUBSTITUTE": 9103,
      "Ġpeer": 9104,
      "does": 9105,
      "Ġcast": 9106,
      ":\")": 9107,
      "Ġsoup": 9108,
      "Ġ/></": 9109,
      "ĠCONSEQUENTIAL": 9110,
      "044": 9111,
      "Ġç": 9112,
      "Ġol": 9113,
      "coordin": 9114,
      "wt": 9115,
      "Ġsetuptools": 9116,
      "tral": 9117,
      "pretty": 9118,
      "tector": 9119,
      "pectrum": 9120,
      "Right": 9121,
      "Ġdeli": 9122,
      "ParseError": 9123,
      "!\")": 9124,
      "ODE": 9125,
      "Ġindicates": 9126,
      "LENGTH": 9127,
      "Ġreceive": 9128,
      "uro": 9129,
      "wrapped": 9130,
      "Compiler": 9131,
      "Ġcomparison": 9132,
      "Ġrecursive": 9133,
      "ĠTensorFlow": 9134,
      "TraceSourceAccessor": 9135,
      "ESPACE": 9136,
      "Ġ90": 9137,
      "ĠGiven": 9138,
      "WITH": 9139,
      "binding": 9140,
      "ĠMAX": 9141,
      "tif": 9142,
      "Ġfunctools": 9143,
      "ĊĠĠĠĠĠĠĠĠĠĠĠĠĠĠĠĠĠĠĠĠĠĠĠĠĠĠĠĠĠĠĠĠĠĠĠĠĠĠĠĠĠĠĠĠĠĠĠĠĠĠĠĠĠĠĠ": 9144,
      "uspend": 9145,
      "Ġserializer": 9146,
      "izing": 9147,
      "DULE": 9148,
      "Ġdocs": 9149,
      "Ġarea": 9150,
      "Ġretval": 9151,
      "=============": 9152,
      "***": 9153,
      "uv": 9154,
      "Cap": 9155,
      "Cy": 9156,
      "gre": 9157,
      "Ġfinished": 9158,
      "IGENCE": 9159,
      "}:": 9160,
      "quality": 9161,
      "Ġborder": 9162,
      "Ġrespon": 9163,
      "Ġshown": 9164,
      "NOWN": 9165,
      "Video": 9166,
      "Used": 9167,
      "ĠINDIRECT": 9168,
      "Est": 9169,
      "clusters": 9170,
      "WARNING": 9171,
      "Ġreproduce": 9172,
      "ĠGOO": 9173,
      "Ġstarts": 9174,
      "ĠARABIC": 9175,
      "Ġspecifying": 9176,
      "ectors": 9177,
      "mmutable": 9178,
      "GLIGENCE": 9179,
      "Ġsubclasses": 9180,
      "aff": 9181,
      "Ġblob": 9182,
      "Ġresulting": 9183,
      "Program": 9184,
      "NONE": 9185,
      "Ġleading": 9186,
      "terms": 9187,
      "hf": 9188,
      "Ġmarkup": 9189,
      "NUMBER": 9190,
      "mitive": 9191,
      "Ht": 9192,
      "Ġpygame": 9193,
      "BRE": 9194,
      "ĠAuto": 9195,
      "difference": 9196,
      "ĠPBX": 9197,
      "roper": 9198,
      "Ġmk": 9199,
      "isis": 9200,
      "ticket": 9201,
      "Ġgran": 9202,
      "communic": 9203,
      "funcs": 9204,
      "DataFrame": 9205,
      "ĠPROFITS": 9206,
      "ios": 9207,
      "hg": 9208,
      "aste": 9209,
      "\"][": 9210,
      "096": 9211,
      "Ġqueries": 9212,
      "Ġ#@": 9213,
      "Ġdocstring": 9214,
      "ĠConstruct": 9215,
      "Render": 9216,
      "mongo": 9217,
      "prec": 9218,
      "Ġgame": 9219,
      "Ġfreq": 9220,
      "æķ": 9221,
      "Ġprece": 9222,
      "always": 9223,
      "ffered": 9224,
      "113": 9225,
      "received": 9226,
      "Ġimplicit": 9227,
      "posix": 9228,
      "Ġcolors": 9229,
      "aller": 9230,
      "cipher": 9231,
      "Standard": 9232,
      "reload": 9233,
      "fileobj": 9234,
      "Ġcomputed": 9235,
      "Ġrefresh": 9236,
      "Ġnargs": 9237,
      "Ġargv": 9238,
      "dating": 9239,
      "ĠOrder": 9240,
      "alert": 9241,
      "rmtree": 9242,
      "Ġextended": 9243,
      "Ġ\"@": 9244,
      "Ġchannels": 9245,
      "kes": 9246,
      "namespaces": 9247,
      "Ġwebpage": 9248,
      "CM": 9249,
      "Ġduplicate": 9250,
      "Uns": 9251,
      "218": 9252,
      "Ġtp": 9253,
      "ĠNEGLIGENCE": 9254,
      "segment": 9255,
      "ubb": 9256,
      "LP": 9257,
      "gramming": 9258,
      "dll": 9259,
      "heb": 9260,
      "2016": 9261,
      "metrical": 9262,
      "POS": 9263,
      "sb": 9264,
      "Ġ=>": 9265,
      "Ġer": 9266,
      "normpath": 9267,
      "TARGET": 9268,
      "letter": 9269,
      "Console": 9270,
      "Dataset": 9271,
      "Characters": 9272,
      "moo": 9273,
      "ĠSolution": 9274,
      "Ġprepare": 9275,
      "codec": 9276,
      "sdk": 9277,
      "Static": 9278,
      "ĠWSGI": 9279,
      "=''):": 9280,
      "iden": 9281,
      "Ġweak": 9282,
      "QUAL": 9283,
      "Ġfew": 9284,
      "manual": 9285,
      "swap": 9286,
      "=\"\"": 9287,
      "Ġcond": 9288,
      "GEN": 9289,
      "xp": 9290,
      "addon": 9291,
      "grams": 9292,
      "CallbackImplBase": 9293,
      "SyntaxError": 9294,
      "See": 9295,
      "Ġshouldn": 9296,
      "Ġindicating": 9297,
      "Errors": 9298,
      "jac": 9299,
      "2008": 9300,
      "ĠKEY": 9301,
      "pull": 9302,
      "Actions": 9303,
      "Ġcirc": 9304,
      "tok": 9305,
      "UPT": 9306,
      "Ġtransfer": 9307,
      "__(*": 9308,
      "FUN": 9309,
      "Ġ=====": 9310,
      "Ġcancel": 9311,
      "sibly": 9312,
      "((\"": 9313,
      "Ġspecifies": 9314,
      "ĠARE": 9315,
      "lays": 9316,
      "soup": 9317,
      "UES": 9318,
      "ĠOp": 9319,
      "Ġresponses": 9320,
      "need": 9321,
      "ĠThey": 9322,
      "Django": 9323,
      "Ġangle": 9324,
      "locked": 9325,
      "ĠĠĠĠĠĠĠĠĠĠĠĠĠĠĠĠĠĠĠĠ": 9326,
      "159": 9327,
      "Ġlearning": 9328,
      "Ġsimply": 9329,
      "Ġfunctionality": 9330,
      "AU": 9331,
      "aring": 9332,
      "quent": 9333,
      "GetValue": 9334,
      "217": 9335,
      "ĠSince": 9336,
      "theta": 9337,
      "ĠCurrent": 9338,
      "phone": 9339,
      "annotation": 9340,
      "catch": 9341,
      "Ġscores": 9342,
      "RUPT": 9343,
      "Ġquotes": 9344,
      "Initialize": 9345,
      "Init": 9346,
      "encoder": 9347,
      "Ġslot": 9348,
      "ĊĠĠĠĠĠĠĠĠĠĠĠĠĠĠĠĠĠĠĠĠĠĠĠĠĠĠĠĠĠĠĠĠĠĠĠĠĠĠĠĠĠĠĠĠĠĠĠĠĠĠĠĠ": 9349,
      "locals": 9350,
      "Ġreply": 9351,
      "Ġevaluate": 9352,
      "sione": 9353,
      "Pbb": 9354,
      "rices": 9355,
      "dates": 9356,
      "ĠCOPY": 9357,
      "EMPL": 9358,
      "ISED": 9359,
      "ç»": 9360,
      "ĠWork": 9361,
      "Ġradius": 9362,
      "Ġdense": 9363,
      "Ġmesh": 9364,
      "credit": 9365,
      "ĠLay": 9366,
      "ptime": 9367,
      "limits": 9368,
      "atis": 9369,
      "strong": 9370,
      "Ġacross": 9371,
      "ä¸Ģ": 9372,
      "alloc": 9373,
      "tzinfo": 9374,
      "upgrade": 9375,
      "LOB": 9376,
      "bulk": 9377,
      "Ġflatten": 9378,
      "precationWarning": 9379,
      "ĠNS": 9380,
      "bile": 9381,
      "ĠAttributes": 9382,
      "()])": 9383,
      "=_(\"": 9384,
      "aniti": 9385,
      "anned": 9386,
      "community": 9387,
      "ĠFilter": 9388,
      "Flexible": 9389,
      "RUN": 9390,
      "receive": 9391,
      "Received": 9392,
      "Ġlayers": 9393,
      "Ġtaken": 9394,
      "Ġminutes": 9395,
      "SIGN": 9396,
      "2005": 9397,
      "gral": 9398,
      "Ġ*/\\": 9399,
      "Decode": 9400,
      "subset": 9401,
      "ads": 9402,
      "cases": 9403,
      "Ġ33": 9404,
      "uba": 9405,
      "tially": 9406,
      "OTE": 9407,
      "264": 9408,
      "0000000000000000": 9409,
      "MAC": 9410,
      "ĠBoolean": 9411,
      "sigma": 9412,
      "Ġpending": 9413,
      "itch": 9414,
      "ENC": 9415,
      "execution": 9416,
      "Generic": 9417,
      "ERY": 9418,
      "concat": 9419,
      "]}": 9420,
      "Ġcoefficient": 9421,
      "assertIsNot": 9422,
      "ssue": 9423,
      "TagBuffer": 9424,
      "0002": 9425,
      ";\"": 9426,
      "decl": 9427,
      "Ġct": 9428,
      "ingerprint": 9429,
      "fid": 9430,
      "BIN": 9431,
      "Ġseparator": 9432,
      "ĠSec": 9433,
      "ĠExec": 9434,
      "Ġsleep": 9435,
      "SerializeToString": 9436,
      "Ġfollowed": 9437,
      "IMAGE": 9438,
      "BAD": 9439,
      "Tags": 9440,
      "includes": 9441,
      "ĠThen": 9442,
      "tential": 9443,
      "Ġtxt": 9444,
      "Ġhaving": 9445,
      "Ġintegers": 9446,
      "tency": 9447,
      "/(?": 9448,
      "serted": 9449,
      "JzKet": 9450,
      "Ġconsume": 9451,
      "perf": 9452,
      "ĊĊĠĠĠĠĠĠĠĠĠĠĠĠĠĠĠĠĠĠĠĠĠĠĠ": 9453,
      "VC": 9454,
      "Ġes": 9455,
      "Ġyes": 9456,
      "mx": 9457,
      "getcwd": 9458,
      "Ġ{\\": 9459,
      "----------": 9460,
      "01234": 9461,
      "tively": 9462,
[...]
